{
  "version": "1.0",
  "truncation": null,
  "padding": null,
  "added_tokens": [
    {
      "id": 0,
      "content": "[UNK]",
      "single_word": false,
      "lstrip": false,
      "rstrip": false,
      "normalized": false,
      "special": true
    },
    {
      "id": 1,
      "content": "[CLS]",
      "single_word": false,
      "lstrip": false,
      "rstrip": false,
      "normalized": false,
      "special": true
    },
    {
      "id": 2,
      "content": "[SEP]",
      "single_word": false,
      "lstrip": false,
      "rstrip": false,
      "normalized": false,
      "special": true
    },
    {
      "id": 3,
      "content": "[PAD]",
      "single_word": false,
      "lstrip": false,
      "rstrip": false,
      "normalized": false,
      "special": true
    },
    {
      "id": 4,
      "content": "[MASK]",
      "single_word": false,
      "lstrip": false,
      "rstrip": false,
      "normalized": false,
      "special": true
    },
    {
      "id": 5,
      "content": "[BLANK]",
      "single_word": false,
      "lstrip": false,
      "rstrip": false,
      "normalized": false,
      "special": true
    }
  ],
  "normalizer": {
    "type": "Sequence",
    "normalizers": [
      {
        "type": "NFD"
      },
      {
        "type": "Lowercase"
      },
      {
        "type": "StripAccents"
      },
      {
        "type": "Replace",
        "pattern": {
          "String": "<foreign>"
        },
        "content": "UNK"
      },
      {
        "type": "Replace",
        "pattern": {
          "Regex": "[^֐-׿\u0000-‌-‿₠-₿∀-⋿⅐-↋ﬀ-ﭏ]+"
        },
        "content": "UNK"
      }
    ]
  },
  "pre_tokenizer": {
    "type": "Split",
    "pattern": {
      "Regex": "(שכשה|ולמ|שמ|ולמש|ו|כשל|למב|ולכשה|ומש|ושב|שה|כ|בשה|מבש|כש|לשל|ומה|ושל|וכשמ|משה|ומלש|ובשל|ולשל|ה|שכש|בש|וה|שמש|ל|לכש|ומשל|ושכ|לכשה|של|וכשב|ומבש|ובשה|ובש|ושמב|וש|שמב|ושלש|וכשה|ובכ|כשב|וכשכ|משל|למ|כשה|בשל|שלכש|וכש|מ|כשמה|מכש|כשמ|ב|ש|מש|ושכש|ושלכש|וכשמה|שב|ושמה|כשכ|שכ|ושכשה|וכשל|שמה|ומשה|ושה|מב|בכ|ומכ|ולכ|שלכשה|ומכש|וכב|ומב|ולמב|מל|כב|וב|ושמש|ושלכשה|ושמ|מלש|ולכש|וכ|ולש|ול|לש|שלש|מכ|לכ|מה|למש|ומל|ומ)(?=\"[א-ת]{3})|(יאנקוביץ|בז|ור|ופרופ|הסוויץ|מוזס-בורוביץ|הארץ|זאהוביץ|וו|כשפרופ|גודריץ|הסטאז|קילומטרז|אורנג|סטוראייג|מאץ|איבנוביץ|הפאנץ|פוניבז|יחימוביץ|שפרופ|וז'ורז|הבלוטות|לבקוביץ|שיח|מרקוביץ|בפרופ|אלוביץ|מפרופ|פרת|שמילושביץ|פ.ס.ז|לפרופ|שאברמוביץ|רואץ|וונאג|בפיץ|מלאדיץ|פונץ|מס|מאטוסביץ|קוסטיץ|אג|דונביץ|ראיקוביץ|פייג|ינקוביץ|סרג|בורג|האץ|סייג|בי|מונטאז|אנ|מיטרוביץ|ח|הקוטג|קראנץ|במס|לייז|הץ|סטונהנג|גראנג|עמ|בפרת|ג'ורג|וש|י|בקולאז|מינאז|ג'רג|פיץ|ומס|ואלוביץ|סטויאקוביץ|ו-ג|באורנג|לב|נימצוביץ|ר|איצקוביץ|צ'יץ|ש|מש|וד|ופיץ|דמירוביץ|בורז|מאירוביץ|וכו|ניקוליץ|פורטסמות|נצ|ליץ|גארת|אברמוביץ|ברלוביץ|בות|דק|מג'ורג|אסאנג|ג'אדג|לובץ|מאליקוביץ|גדג|ראנץ|פרופ|פטקוביץ|ז|לובביץ|הסנדוויץ|וידיץ|סמית|וולפוביץ|מנ|זליקוביץ|סטארידג|גב|מנדלוביץ|לאלוביץ|וגו|קארדז'יץ|וסמית|קוקוץ|שוסטקוביץ|ו-ב|הבעת|גורג|גריניץ|ואורנג|כב|פלאת|ריב|ללינץ|מינטקביץ|מיליצ'יץ|בוץ|הניו-אייג|ואח|אינץ|ע|לינץ|יוקיץ|צ'וברביץ|וורונז|פריג|טומיץ|גדז|וג'ורג|בטק-קראנץ|בלייג|מהקולג|בו|בגראז|ת|הוויטראז|סטייג|בת|הברידג|בוגדנוביץ|הביץ|דיוקוביץ|בב|בלודז|פרג|הית|קולג|דר|החאג|מד|לה|וי|מת|קז'ימייז|ברוקראז|ברומיץ|קראוץ|דארת|לד|בר|ניקולאייביץ|אוני|בד|הפרינג|ד|אימאג|דנילוביץ|מארג|פאדג|אסיס|ל|הפסאז|פקוביץ|קילומטראז|ראוניץ|אס|באריץ|לגראנז|אנבת|לג'ורג|קובאץ|יוליץ|שלי|לודג|לפורטסמות|הפ|מיץ|וסרג|קרנץ|צינוביץ|אלכסנדרוביץ|מארץ|בורנמות|וג|מרג|משקביץ|פאנץ|אדג|קנת|סטאנקוביץ|בגריניץ|וודג|סבאת|לאברינוביץ|וורת|ישראלביץ|בוליץ|אופ|באת|הארביטראז|פרנץ|צ'רץ|וודברידג|מרקטווץ|ברח|מירוסביץ|לקיימברידג|גודוביץ|שהפרופ|סי|לייבוביץ|מיראז|מא|סרז|אלדריג|איוואנוביץ|מקולג|קלמנוביץ|וידוביץ|חג'ג|ביליץ|אימג|קילינגסוורת|ז'ורז|ופייג|מסיץ|ורסאץ|מיל|בוסקוביץ|בג|פינקוביץ|יבריץ|וברקוביץ|קייג|הומאז|גריפית|ליחימוביץ|רייג|קואץ|גינגריץ|פלאניניץ|בכ|ידיעות|טאג|מירג|ינוקוביץ|דת|ארת|חדית|ברוז|בלסאות|רביקוביץ|סטריינג|הרציקוביץ|שאלוביץ|דראגיץ|הוצ|פינץ|יח|שנ|גז'גוז|באוני|שסטוביץ|וב|יובאנוביץ|מרדית|מדז'יבוז|לוקאץ|גורביץ|איליץ|הדת|בנטוויץ|הטאץ|בלוטות|וינטג|בצ'ירוביץ|מירוטיץ|תר|טאדיץ|אינצ|מח|שדוידוביץ|ארמיטאג|ברנוביץ|שמ|רות|בראנץ|מר|סטאז|קולאז|צ|ארביטראז|לאקוביץ|לקוטג|סאביץ|בורוביץ|לג|הברוקרג|כפרופ|לדוידוביץ|הבראנץ|בקיימברידג|בקוטג|ענח|אינטרנט|בט|סגלוביץ|אל-חאג|שייח|פראג|לאונג|מייברידג|ריסרץ|גלט-ברקוביץ|בטל|הקולג|וויצ'יץ|הקילומטראז|בירץ|קומטאץ|וה|גראז|הנק|הודג|דנץ|פאביצ'ביץ|בקלוז|ושות|איזיקוביץ|לר|ריינג|מרטינוביץ|סע|קוץ|הריטג|ספורטאז|נוריץ|הקלאץ|מיכאילוביץ|קולידג|למ|ו-ה|וא|טומאסיץ|השיח|רוסטרופוביץ|מ|וע|דוידוביץ|בריץ|טק-קראנץ|איבקוביץ|שסמית|כר|פיית|שא|מצקביץ|סיראז|וינטאג|טאץ|פרינג|בקולג|וילג|איינג|זבלדוביץ|קלוז|בשייח|ט|לימוז|גורוז|מלקוביץ|טיפסרביץ|שהרציקוביץ|פס|מאריץ|סות|אייג|מקיימברידג|קית|ויטראז|מי|אהרונוביץ|ראקיטיץ|סמוטריץ|הוקיץ|המיראז|רידג|טאצ|יות|שר|יעקובוביץ|רח|הברוקראז|לַה|לאברמוביץ|אנילביץ|רוז|טוב|איפסוויץ|הגב|אונ|כשג'ורג|סנדוויץ|ק|איברהימוביץ|מלובביץ|בולאטוביץ|בוריסוביץ|לאורנג|רבינוביץ|מילושביץ|הקילומטרז|ס|לואץ|סאות|מיכאלוביץ|בווילג|מקבת|אוברקוביץ|ומ|ברדיץ|חב|קולרידג|נייסמית|צ'יליץ|ו|הלינץ|שה|ג|זיסוביץ|הווינטג|ליוביצ'יץ|ולפרופ|ממשפ|כ|לשייח|והפרופ|נורת|ג'וקוביץ|שעת|סוויץ|הקולאז|גריגורייביץ|סקרוג|קובוביץ|לוביץ|שו|לברקוביץ|לא|במיל|אקסצ'יינג|חאג|אנטיץ|פירת|אנצ'יץ|גר|קרלוביץ|יקירביץ|לקולג|ברקוביץ|בסאות|הגראנג|ה|שד|ברידג|אליזבת|פסאז|זבלודוביץ|אובראדוביץ|דאץ|פץ|מיאטוביץ|דוקיץ|אינג|טלטוביץ|סולאראדג|שמואלביץ|הפרופ|מורגות|הר|לודז|ויחימוביץ|סת|מגאת|בל|קובאצ'וויץ|בוצ'אץ|ולדימירוביץ|סנדביץ|ובקולג|לארג|השייח|בא|אייץ|החדית|גווינת|סטנויביץ|בפורטסמות|האורנג|חיימוביץ|ליאז|קרסטיץ|בליאז|ליבוביץ|טורבוביץ|איוונוביץ|שיחימוביץ|טרנץ|דודג|הבז|סאריץ|פלימות|בג'ורג|קיימברידג|אוליץ|מסאז|נק|ריץ|א|קלאץ|חג|נאג|וקית|ב|אולדריץ|להרציקוביץ|פ|בראטיץ|מילוטינוביץ|צ'ורצ'יץ|א-שייח|מרינקוביץ|אוברדוביץ|קוראז|ביץ|בח|גייג|וט|הלת|הרשקוביץ|בה|דראפיץ|פסחוביץ|קוראץ|קנטרידג|מחיר|מודריץ|ה\"ביץ|אניצ'יץ|בקולז|שברקוביץ|סרגייביץ|טל|יב|דווידוביץ|פטרוביץ|הטאג|וכד|ובז|רוץ|גונטז|נ|ג'ינג'יץ|לגב|באונ|קמברבאץ|שג'ורג|בורגראנץ|ספיץ|קוטג|אל-בורייג|ראג|איוואניסביץ|וח|הגראז|לש|בלינץ|גארבג|פופוביץ|ראדוביץ|בעמ|מוסקוביץ)'|\\w*[א-ת]\\\"[א-ת]\\w*|\\w+|\\p{P}|[^\\w\\s]+"
    },
    "behavior": "Removed",
    "invert": true
  },
  "post_processor": {
    "type": "TemplateProcessing",
    "single": [
      {
        "SpecialToken": {
          "id": "[CLS]",
          "type_id": 0
        }
      },
      {
        "Sequence": {
          "id": "A",
          "type_id": 0
        }
      },
      {
        "SpecialToken": {
          "id": "[SEP]",
          "type_id": 0
        }
      }
    ],
    "pair": [
      {
        "SpecialToken": {
          "id": "[CLS]",
          "type_id": 0
        }
      },
      {
        "Sequence": {
          "id": "A",
          "type_id": 0
        }
      },
      {
        "SpecialToken": {
          "id": "[SEP]",
          "type_id": 0
        }
      },
      {
        "Sequence": {
          "id": "B",
          "type_id": 1
        }
      },
      {
        "SpecialToken": {
          "id": "[SEP]",
          "type_id": 1
        }
      }
    ],
    "special_tokens": {
      "[CLS]": {
        "id": "[CLS]",
        "ids": [
          1
        ],
        "tokens": [
          "[CLS]"
        ]
      },
      "[SEP]": {
        "id": "[SEP]",
        "ids": [
          2
        ],
        "tokens": [
          "[SEP]"
        ]
      }
    }
  },
  "decoder": null,
  "model": {
    "type": "WordPiece",
    "unk_token": "[UNK]",
    "continuing_subword_prefix": "##",
    "max_input_chars_per_word": 100,
    "vocab": {
      "[UNK]": 0,
      "[CLS]": 1,
      "[SEP]": 2,
      "[PAD]": 3,
      "[MASK]": 4,
      "[BLANK]": 5,
      "\u0000": 6,
      "\u0001": 7,
      "\u0002": 8,
      "\u0003": 9,
      "\u0004": 10,
      "\u0005": 11,
      "\u0006": 12,
      "\u0007": 13,
      "\b": 14,
      "\u000e": 15,
      "\u000f": 16,
      "\u0010": 17,
      "\u0011": 18,
      "\u0012": 19,
      "\u0013": 20,
      "\u0014": 21,
      "\u0015": 22,
      "\u0016": 23,
      "\u0017": 24,
      "\u0018": 25,
      "\u0019": 26,
      "\u001a": 27,
      "\u001b": 28,
      "\u001c": 29,
      "\u001d": 30,
      "\u001e": 31,
      "\u001f": 32,
      " ": 33,
      "!": 34,
      "\"": 35,
      "#": 36,
      "$": 37,
      "%": 38,
      "&": 39,
      "'": 40,
      "(": 41,
      ")": 42,
      "*": 43,
      "+": 44,
      ",": 45,
      "-": 46,
      ".": 47,
      "/": 48,
      "0": 49,
      "1": 50,
      "2": 51,
      "3": 52,
      "4": 53,
      "5": 54,
      "6": 55,
      "7": 56,
      "8": 57,
      "9": 58,
      ":": 59,
      ";": 60,
      "<": 61,
      "=": 62,
      ">": 63,
      "?": 64,
      "@": 65,
      "[": 66,
      "\\": 67,
      "]": 68,
      "^": 69,
      "_": 70,
      "`": 71,
      "a": 72,
      "b": 73,
      "c": 74,
      "d": 75,
      "e": 76,
      "f": 77,
      "g": 78,
      "h": 79,
      "i": 80,
      "j": 81,
      "k": 82,
      "l": 83,
      "m": 84,
      "n": 85,
      "o": 86,
      "p": 87,
      "q": 88,
      "r": 89,
      "s": 90,
      "t": 91,
      "u": 92,
      "v": 93,
      "w": 94,
      "x": 95,
      "y": 96,
      "z": 97,
      "{": 98,
      "|": 99,
      "}": 100,
      "~": 101,
      "": 102,
      "": 103,
      "": 104,
      "": 105,
      "": 106,
      "": 107,
      "": 108,
      "": 109,
      "": 110,
      "": 111,
      "": 112,
      "": 113,
      "": 114,
      "": 115,
      "": 116,
      "": 117,
      "": 118,
      "": 119,
      "": 120,
      "": 121,
      "": 122,
      "": 123,
      "": 124,
      "": 125,
      "": 126,
      "": 127,
      "": 128,
      "": 129,
      "": 130,
      "¡": 131,
      "¢": 132,
      "£": 133,
      "¤": 134,
      "¥": 135,
      "¦": 136,
      "§": 137,
      "©": 138,
      "«": 139,
      "¬": 140,
      "­": 141,
      "®": 142,
      "°": 143,
      "±": 144,
      "¶": 145,
      "·": 146,
      "»": 147,
      "¿": 148,
      "×": 149,
      "ß": 150,
      "æ": 151,
      "ð": 152,
      "÷": 153,
      "ø": 154,
      "þ": 155,
      "ȼ": 156,
      "˖": 157,
      "˗": 158,
      "ͱ": 159,
      "ͳ": 160,
      "͵": 161,
      "ӏ": 162,
      "ԝ": 163,
      "֎": 164,
      "־": 165,
      "׀": 166,
      "׃": 167,
      "׆": 168,
      "׈": 169,
      "׉": 170,
      "׊": 171,
      "׋": 172,
      "׍": 173,
      "׎": 174,
      "׏": 175,
      "א": 176,
      "ב": 177,
      "ג": 178,
      "ד": 179,
      "ה": 180,
      "ו": 181,
      "ז": 182,
      "ח": 183,
      "ט": 184,
      "י": 185,
      "ך": 186,
      "כ": 187,
      "ל": 188,
      "ם": 189,
      "מ": 190,
      "ן": 191,
      "נ": 192,
      "ס": 193,
      "ע": 194,
      "ף": 195,
      "פ": 196,
      "ץ": 197,
      "צ": 198,
      "ק": 199,
      "ר": 200,
      "ש": 201,
      "ת": 202,
      "׫": 203,
      "װ": 204,
      "ױ": 205,
      "ײ": 206,
      "׳": 207,
      "״": 208,
      "׸": 209,
      "׹": 210,
      "׺": 211,
      "׿": 212,
      "،": 213,
      "؛": 214,
      "؟": 215,
      "٪": 216,
      "٭": 217,
      "۔": 218,
      "۝": 219,
      "۞": 220,
      "۩": 221,
      "ߋ": 222,
      "ߐ": 223,
      "ߕ": 224,
      "ߗ": 225,
      "ߜ": 226,
      "ߝ": 227,
      "ߞ": 228,
      "ߟ": 229,
      "ߠ": 230,
      "ߡ": 231,
      "ߢ": 232,
      "ߨ": 233,
      "ߩ": 234,
      "ߪ": 235,
      "।": 236,
      "฿": 237,
      "๏": 238,
      "፡": 239,
      "ᤞ": 240,
      "᧐": 241,
      "ᨁ": 242,
      "ᨅ": 243,
      "ᨔ": 244,
      "ᨕ": 245,
      "‌": 246,
      "‍": 247,
      "‎": 248,
      "‏": 249,
      "‐": 250,
      "‒": 251,
      "–": 252,
      "—": 253,
      "―": 254,
      "‖": 255,
      "‘": 256,
      "’": 257,
      "‚": 258,
      "‛": 259,
      "“": 260,
      "”": 261,
      "„": 262,
      "‟": 263,
      "†": 264,
      "‡": 265,
      "•": 266,
      "‣": 267,
      "‧": 268,
      "‪": 269,
      "‫": 270,
      "‬": 271,
      "‭": 272,
      "‮": 273,
      "‰": 274,
      "′": 275,
      "‹": 276,
      "›": 277,
      "※": 278,
      "‽": 279,
      "‿": 280,
      "⁃": 281,
      "⁄": 282,
      "⁎": 283,
      "⁠": 284,
      "⁣": 285,
      "⁦": 286,
      "⁧": 287,
      "⁨": 288,
      "⁩": 289,
      "₡": 290,
      "₣": 291,
      "₤": 292,
      "₦": 293,
      "₩": 294,
      "₪": 295,
      "₫": 296,
      "€": 297,
      "₭": 298,
      "₮": 299,
      "₱": 300,
      "₴": 301,
      "₵": 302,
      "₸": 303,
      "₹": 304,
      "₺": 305,
      "₼": 306,
      "₽": 307,
      "₾": 308,
      "₿": 309,
      "ↄ": 310,
      "←": 311,
      "↑": 312,
      "→": 313,
      "↓": 314,
      "↔": 315,
      "↗": 316,
      "↘": 317,
      "↙": 318,
      "↩": 319,
      "↳": 320,
      "↵": 321,
      "⇌": 322,
      "⇐": 323,
      "⇒": 324,
      "⇓": 325,
      "⇔": 326,
      "⇦": 327,
      "⇧": 328,
      "⇨": 329,
      "⇱": 330,
      "∀": 331,
      "∂": 332,
      "∃": 333,
      "∅": 334,
      "∆": 335,
      "∇": 336,
      "∈": 337,
      "∍": 338,
      "∎": 339,
      "∏": 340,
      "∐": 341,
      "∑": 342,
      "−": 343,
      "∕": 344,
      "∗": 345,
      "∘": 346,
      "∙": 347,
      "√": 348,
      "∛": 349,
      "∝": 350,
      "∞": 351,
      "∟": 352,
      "∠": 353,
      "∢": 354,
      "∧": 355,
      "∨": 356,
      "∩": 357,
      "∪": 358,
      "∫": 359,
      "∴": 360,
      "∼": 361,
      "≅": 362,
      "≈": 363,
      "≋": 364,
      "≟": 365,
      "≡": 366,
      "≤": 367,
      "≥": 368,
      "≦": 369,
      "≧": 370,
      "≪": 371,
      "≫": 372,
      "⊂": 373,
      "⊃": 374,
      "⊆": 375,
      "⊇": 376,
      "⊕": 377,
      "⊗": 378,
      "⊙": 379,
      "⊞": 380,
      "⊠": 381,
      "⊢": 382,
      "⊤": 383,
      "⊦": 384,
      "⋃": 385,
      "⋄": 386,
      "⋅": 387,
      "⋆": 388,
      "⋇": 389,
      "⋧": 390,
      "⋮": 391,
      "⋯": 392,
      "⌀": 393,
      "⌂": 394,
      "⌘": 395,
      "⌚": 396,
      "⌛": 397,
      "⌥": 398,
      "⎙": 399,
      "⏎": 400,
      "⏪": 401,
      "⏮": 402,
      "⏰": 403,
      "⏱": 404,
      "⏳": 405,
      "⏺": 406,
      "─": 407,
      "│": 408,
      "┐": 409,
      "└": 410,
      "┴": 411,
      "╋": 412,
      "║": 413,
      "╬": 414,
      "█": 415,
      "▌": 416,
      "░": 417,
      "■": 418,
      "□": 419,
      "▪": 420,
      "▫": 421,
      "▲": 422,
      "△": 423,
      "▶": 424,
      "▷": 425,
      "▸": 426,
      "►": 427,
      "▼": 428,
      "▽": 429,
      "▾": 430,
      "◀": 431,
      "◁": 432,
      "◂": 433,
      "◃": 434,
      "◄": 435,
      "◆": 436,
      "◇": 437,
      "◈": 438,
      "◉": 439,
      "◊": 440,
      "○": 441,
      "◌": 442,
      "◎": 443,
      "●": 444,
      "◕": 445,
      "◘": 446,
      "◙": 447,
      "◡": 448,
      "◥": 449,
      "◦": 450,
      "◴": 451,
      "◻": 452,
      "◼": 453,
      "◽": 454,
      "◾": 455,
      "☀": 456,
      "☁": 457,
      "☂": 458,
      "☃": 459,
      "☄": 460,
      "★": 461,
      "☆": 462,
      "☉": 463,
      "☎": 464,
      "☏": 465,
      "☐": 466,
      "☑": 467,
      "☒": 468,
      "☔": 469,
      "☕": 470,
      "☘": 471,
      "☚": 472,
      "☜": 473,
      "☝": 474,
      "☠": 475,
      "☢": 476,
      "☯": 477,
      "☰": 478,
      "☹": 479,
      "☺": 480,
      "☻": 481,
      "☼": 482,
      "♀": 483,
      "♂": 484,
      "♔": 485,
      "♕": 486,
      "♚": 487,
      "♛": 488,
      "♟": 489,
      "♠": 490,
      "♡": 491,
      "♢": 492,
      "♣": 493,
      "♥": 494,
      "♦": 495,
      "♧": 496,
      "♨": 497,
      "♪": 498,
      "♫": 499,
      "♬": 500,
      "♭": 501,
      "♯": 502,
      "♰": 503,
      "♻": 504,
      "♿": 505,
      "⚇": 506,
      "⚒": 507,
      "⚓": 508,
      "⚔": 509,
      "⚖": 510,
      "⚘": 511,
      "⚛": 512,
      "⚜": 513,
      "⚠": 514,
      "⚡": 515,
      "⚧": 516,
      "⚪": 517,
      "⚫": 518,
      "⚽": 519,
      "⛔": 520,
      "⛰": 521,
      "✂": 522,
      "✅": 523,
      "✆": 524,
      "✈": 525,
      "✉": 526,
      "✊": 527,
      "✋": 528,
      "✌": 529,
      "✍": 530,
      "✎": 531,
      "✏": 532,
      "✓": 533,
      "✔": 534,
      "✖": 535,
      "✗": 536,
      "✙": 537,
      "✛": 538,
      "✡": 539,
      "✦": 540,
      "✧": 541,
      "✨": 542,
      "✩": 543,
      "✪": 544,
      "✫": 545,
      "✭": 546,
      "✮": 547,
      "✯": 548,
      "✰": 549,
      "✱": 550,
      "✲": 551,
      "✳": 552,
      "✴": 553,
      "✶": 554,
      "✸": 555,
      "✺": 556,
      "✻": 557,
      "✽": 558,
      "✾": 559,
      "✿": 560,
      "❀": 561,
      "❁": 562,
      "❂": 563,
      "❃": 564,
      "❄": 565,
      "❇": 566,
      "❈": 567,
      "❋": 568,
      "❌": 569,
      "❎": 570,
      "❏": 571,
      "❑": 572,
      "❒": 573,
      "❓": 574,
      "❔": 575,
      "❕": 576,
      "❖": 577,
      "❗": 578,
      "❝": 579,
      "❞": 580,
      "❣": 581,
      "❤": 582,
      "❥": 583,
      "❦": 584,
      "❭": 585,
      "❯": 586,
      "❶": 587,
      "❷": 588,
      "❸": 589,
      "➊": 590,
      "➋": 591,
      "➌": 592,
      "➍": 593,
      "➎": 594,
      "➔": 595,
      "➕": 596,
      "➖": 597,
      "➡": 598,
      "➢": 599,
      "➤": 600,
      "➦": 601,
      "⟨": 602,
      "⟩": 603,
      "⠀": 604,
      "⤵": 605,
      "⤶": 606,
      "⦁": 607,
      "⦿": 608,
      "⧼": 609,
      "⧽": 610,
      "⬅": 611,
      "⬆": 612,
      "⬇": 613,
      "⬛": 614,
      "⬜": 615,
      "⭐": 616,
      "⭕": 617,
      "ⰲ": 618,
      "ⰽ": 619,
      "ⰾ": 620,
      "ⱀ": 621,
      "ⱁ": 622,
      "ⱄ": 623,
      "ⱏ": 624,
      "ⱐ": 625,
      "ⱑ": 626,
      "ⱥ": 627,
      "ⲟ": 628,
      "ⴰ": 629,
      "ⴻ": 630,
      "ⵍ": 631,
      "ⵏ": 632,
      "ⵔ": 633,
      "ⵢ": 634,
      "ⵣ": 635,
      "、": 636,
      "。": 637,
      "〈": 638,
      "〉": 639,
      "《": 640,
      "》": 641,
      "「": 642,
      "」": 643,
      "【": 644,
      "】": 645,
      "ꙭ": 646,
      "": 647,
      "": 648,
      "": 649,
      "": 650,
      "": 651,
      "": 652,
      "": 653,
      "": 654,
      "": 655,
      "": 656,
      "": 657,
      "": 658,
      "": 659,
      "": 660,
      "": 661,
      "": 662,
      "": 663,
      "": 664,
      "": 665,
      "": 666,
      "": 667,
      "": 668,
      "": 669,
      "": 670,
      "": 671,
      "": 672,
      "": 673,
      "": 674,
      "": 675,
      "": 676,
      "": 677,
      "": 678,
      "": 679,
      "": 680,
      "": 681,
      "": 682,
      "": 683,
      "": 684,
      "": 685,
      "": 686,
      "": 687,
      "": 688,
      "": 689,
      "": 690,
      "": 691,
      "": 692,
      "": 693,
      "": 694,
      "": 695,
      "": 696,
      "": 697,
      "": 698,
      "": 699,
      "": 700,
      "": 701,
      "": 702,
      "": 703,
      "": 704,
      "": 705,
      "": 706,
      "": 707,
      "": 708,
      "": 709,
      "": 710,
      "": 711,
      "": 712,
      "": 713,
      "": 714,
      "": 715,
      "": 716,
      "": 717,
      "": 718,
      "": 719,
      "": 720,
      "": 721,
      "": 722,
      "": 723,
      "": 724,
      "": 725,
      "": 726,
      "": 727,
      "": 728,
      "": 729,
      "": 730,
      "": 731,
      "": 732,
      "": 733,
      "": 734,
      "": 735,
      "": 736,
      "": 737,
      "": 738,
      "": 739,
      "": 740,
      "": 741,
      "": 742,
      "": 743,
      "": 744,
      "": 745,
      "": 746,
      "": 747,
      "": 748,
      "": 749,
      "": 750,
      "": 751,
      "": 752,
      "": 753,
      "": 754,
      "": 755,
      "": 756,
      "": 757,
      "": 758,
      "": 759,
      "": 760,
      "": 761,
      "": 762,
      "": 763,
      "": 764,
      "": 765,
      "": 766,
      "": 767,
      "": 768,
      "": 769,
      "": 770,
      "": 771,
      "": 772,
      "": 773,
      "": 774,
      "": 775,
      "": 776,
      "": 777,
      "": 778,
      "": 779,
      "": 780,
      "": 781,
      "": 782,
      "": 783,
      "": 784,
      "": 785,
      "": 786,
      "": 787,
      "": 788,
      "": 789,
      "": 790,
      "": 791,
      "": 792,
      "": 793,
      "": 794,
      "": 795,
      "": 796,
      "": 797,
      "": 798,
      "": 799,
      "": 800,
      "": 801,
      "": 802,
      "": 803,
      "##5": 804,
      "##6": 805,
      "##7": 806,
      "##2": 807,
      "##ש": 808,
      "##ת": 809,
      "##י": 810,
      "##ק": 811,
      "##b": 812,
      "##o": 813,
      "##u": 814,
      "##t": 815,
      "##i": 816,
      "##q": 817,
      "##e": 818,
      "##h": 819,
      "##l": 820,
      "##a": 821,
      "##g": 822,
      "##s": 823,
      "##9": 824,
      "##4": 825,
      "##0": 826,
      "##ט": 827,
      "##ר": 828,
      "##p": 829,
      "##x": 830,
      "##r": 831,
      "##3": 832,
      "##ו": 833,
      "##נ": 834,
      "##ס": 835,
      "##פ": 836,
      "##א": 837,
      "##ד": 838,
      "##ל": 839,
      "##c": 840,
      "##k": 841,
      "##ך": 842,
      "##ב": 843,
      "##ע": 844,
      "##w": 845,
      "##מ": 846,
      "##ח": 847,
      "##כ": 848,
      "##ם": 849,
      "##ה": 850,
      "##ג": 851,
      "##ן": 852,
      "##d": 853,
      "##ץ": 854,
      "##y": 855,
      "##n": 856,
      "##צ": 857,
      "##ז": 858,
      "##1": 859,
      "##j": 860,
      "##\"": 861,
      "##m": 862,
      "##8": 863,
      "##ף": 864,
      "##z": 865,
      "##f": 866,
      "##ß": 867,
      "##v": 868,
      "##-": 869,
      "##‬": 870,
      "##_": 871,
      "##ײ": 872,
      "##█": 873,
      "##.": 874,
      "##־": 875,
      "##”": 876,
      "##,": 877,
      "##ߢ": 878,
      "##)": 879,
      "###": 880,
      "##@": 881,
      "##$": 882,
      "##(": 883,
      "##!": 884,
      "##‌": 885,
      "##‪": 886,
      "##": 887,
      "##>": 888,
      "##*": 889,
      "##": 890,
      "##": 891,
      "##æ": 892,
      "##®": 893,
      "##": 894,
      "##/": 895,
      "##?": 896,
      "##'": 897,
      "##‫": 898,
      "##װ": 899,
      "##‭": 900,
      "##ø": 901,
      "##[": 902,
      "##–": 903,
      "##ױ": 904,
      "##~": 905,
      "##‎": 906,
      "##ߩ": 907,
      "##=": 908,
      "##]": 909,
      "##\u0007": 910,
      "##^": 911,
      "##’": 912,
      "##ð": 913,
      "##+": 914,
      "##׳": 915,
      "##¡": 916,
      "##§": 917,
      "##:": 918,
      "##∕": 919,
      "##―": 920,
      "##ߪ": 921,
      "##;": 922,
      "##|": 923,
      "##×": 924,
      "##—": 925,
      "##“": 926,
      "##❓": 927,
      "##`": 928,
      "##ߜ": 929,
      "##­": 930,
      "##‏": 931,
      "##%": 932,
      "##‍": 933,
      "##♂": 934,
      "##⁩": 935,
      "##⁦": 936,
      "##ߕ": 937,
      "##": 938,
      "##»": 939,
      "##♡": 940,
      "##❕": 941,
      "##ߗ": 942,
      "##©": 943,
      "##&": 944,
      "##•": 945,
      "##¥": 946,
      "##": 947,
      "##\u0006": 948,
      "##₪": 949,
      "##ߟ": 950,
      "##": 951,
      "##°": 952,
      "##ߨ": 953,
      "##‮": 954,
      "##◄": 955,
      "##¢": 956,
      "##║": 957,
      "##∩": 958,
      "##❤": 959,
      "##≥": 960,
      "##◊": 961,
      "##≤": 962,
      "##⊆": 963,
      "##│": 964,
      "##♦": 965,
      "##": 966,
      "##": 967,
      "##": 968,
      "##∞": 969,
      "##↑": 970,
      "##״": 971,
      "##ⱥ": 972,
      "##¬": 973,
      "##": 974,
      "##": 975,
      "##£": 976,
      "##": 977,
      "##<": 978,
      "##ߠ": 979,
      "##☃": 980,
      "##●": 981,
      "##þ": 982,
      "##": 983,
      "##": 984,
      "##": 985,
      "##\\": 986,
      "##►": 987,
      "##∙": 988,
      "##": 989,
      "##{": 990,
      "##}": 991,
      "##◼": 992,
      "##❌": 993,
      "##−": 994,
      "##\u001a": 995,
      "##": 996,
      "##✌": 997,
      "##": 998,
      "##": 999,
      "##⁣": 1000,
      "##♀": 1001,
      "##ꙭ": 1002,
      "##": 1003,
      "##⠀": 1004,
      "##": 1005,
      "##ߝ": 1006,
      "##✔": 1007,
      "##ⰲ": 1008,
      "##ⱏ": 1009,
      "##⚔": 1010,
      "##ߐ": 1011,
      "##¤": 1012,
      "##": 1013,
      "##±": 1014,
      "##☝": 1015,
      "##\u0015": 1016,
      "##☆": 1017,
      "##▪": 1018,
      "##⬆": 1019,
      "##›": 1020,
      "##‘": 1021,
      "##": 1022,
      "##": 1023,
      "##÷": 1024,
      "##„": 1025,
      "##✿": 1026,
      "##¦": 1027,
      "##♪": 1028,
      "##": 1029,
      "##❗": 1030,
      "##♭": 1031,
      "##׉": 1032,
      "##ߞ": 1033,
      "##\b": 1034,
      "##": 1035,
      "##·": 1036,
      "##✳": 1037,
      "##♥": 1038,
      "##★": 1039,
      "##∢": 1040,
      "##◦": 1041,
      "##": 1042,
      "##\u0001": 1043,
      "##†": 1044,
      "##ᨁ": 1045,
      "##": 1046,
      "##": 1047,
      "##‰": 1048,
      "##׀": 1049,
      "##": 1050,
      "##♟": 1051,
      "##": 1052,
      "##❖": 1053,
      "##∆": 1054,
      "##✈": 1055,
      "##€": 1056,
      "##⛔": 1057,
      "##☺": 1058,
      "##✊": 1059,
      "##ߡ": 1060,
      "##": 1061,
      "##\u0005": 1062,
      "##\u0004": 1063,
      "##\u0000": 1064,
      "##‡": 1065,
      "##✡": 1066,
      "##": 1067,
      "##\u0002": 1068,
      "##\u0003": 1069,
      "##": 1070,
      "##\u0010": 1071,
      "##⚘": 1072,
      "##⇧": 1073,
      "##": 1074,
      "##": 1075,
      "##⋆": 1076,
      "##✅": 1077,
      "##✓": 1078,
      "##ⵢ": 1079,
      "##ⴰ": 1080,
      "##": 1081,
      "##⁠": 1082,
      "##☀": 1083,
      "##؟": 1084,
      "##☕": 1085,
      "##": 1086,
      "##》": 1087,
      "##": 1088,
      "##←": 1089,
      "##": 1090,
      "##ȼ": 1091,
      "##⭐": 1092,
      "##": 1093,
      "##": 1094,
      "##": 1095,
      "##": 1096,
      "##": 1097,
      "##○": 1098,
      "##": 1099,
      "##¶": 1100,
      "##✨": 1101,
      "##☠": 1102,
      "##♯": 1103,
      "##": 1104,
      "##ᤞ": 1105,
      "##": 1106,
      "##■": 1107,
      "##➕": 1108,
      "##«": 1109,
      "##☼": 1110,
      "##͵": 1111,
      "##": 1112,
      "##": 1113,
      "##⬛": 1114,
      "##◾": 1115,
      "##✽": 1116,
      "##،": 1117,
      "##": 1118,
      "##◽": 1119,
      "##√": 1120,
      "##✺": 1121,
      "##": 1122,
      "##": 1123,
      "##\u0011": 1124,
      "##\u0017": 1125,
      "##\u001b": 1126,
      "##\u0018": 1127,
      "##׃": 1128,
      "##⁨": 1129,
      "##": 1130,
      "##": 1131,
      "##": 1132,
      "##": 1133,
      "##↓": 1134,
      "##✮": 1135,
      "##": 1136,
      "##": 1137,
      "##": 1138,
      "##۞": 1139,
      "##۩": 1140,
      "##": 1141,
      "##⚠": 1142,
      "##❀": 1143,
      "##": 1144,
      "##☁": 1145,
      "##": 1146,
      "##⚽": 1147,
      "##": 1148,
      "##✭": 1149,
      "##☹": 1150,
      "##♣": 1151,
      "##": 1152,
      "##∫": 1153,
      "##₵": 1154,
      "##∇": 1155,
      "##→": 1156,
      "##ߋ": 1157,
      "##♨": 1158,
      "##": 1159,
      "##❣": 1160,
      "##": 1161,
      "##": 1162,
      "##⚖": 1163,
      "##➊": 1164,
      "##": 1165,
      "##⌘": 1166,
      "##✋": 1167,
      "##": 1168,
      "##ⴻ": 1169,
      "##‐": 1170,
      "##": 1171,
      "##": 1172,
      "##": 1173,
      "##": 1174,
      "##": 1175,
      "##": 1176,
      "##": 1177,
      "##": 1178,
      "##": 1179,
      "##": 1180,
      "##♠": 1181,
      "##": 1182,
      "##": 1183,
      "##": 1184,
      "##✰": 1185,
      "##": 1186,
      "##": 1187,
      "## ": 1188,
      "##ⵍ": 1189,
      "##": 1190,
      "##∗": 1191,
      "##。": 1192,
      "##ⰾ": 1193,
      "##ⱁ": 1194,
      "##ⱑ": 1195,
      "##ⱀ": 1196,
      "##ⱐ": 1197,
      "##ⱄ": 1198,
      "##ⰽ": 1199,
      "##⌂": 1200,
      "##♕": 1201,
      "##": 1202,
      "##✯": 1203,
      "##ᨅ": 1204,
      "##ᨔ": 1205,
      "##": 1206,
      "##ⵏ": 1207,
      "##": 1208,
      "##": 1209,
      "##∅": 1210,
      "##✉": 1211,
      "##᧐": 1212,
      "##\u0013": 1213,
      "##\u001d": 1214,
      "##\u0019": 1215,
      "##\u000f": 1216,
      "##\u000e": 1217,
      "##♰": 1218,
      "##∑": 1219,
      "##": 1220,
      "##": 1221,
      "##⬅": 1222,
      "##↗": 1223,
      "##↘": 1224,
      "##\u0012": 1225,
      "##◀": 1226,
      "##ͳ": 1227,
      "##↳": 1228,
      "##─": 1229,
      "##□": 1230,
      "##ⵔ": 1231,
      "##♫": 1232,
      "##": 1233,
      "##\u0014": 1234,
      "##◘": 1235,
      "##☻": 1236,
      "##〈": 1237,
      "##░": 1238,
      "##": 1239,
      "##": 1240,
      "##▲": 1241,
      "##": 1242,
      "##➖": 1243,
      "##✏": 1244,
      "##☄": 1245,
      "##": 1246,
      "##➡": 1247,
      "##‚": 1248,
      "##": 1249,
      "##⬇": 1250,
      "##ⵣ": 1251,
      "##☘": 1252,
      "##✶": 1253,
      "##ͱ": 1254,
      "##": 1255,
      "##\u001e": 1256,
      "##\u001c": 1257,
      "##‒": 1258,
      "##≡": 1259,
      "##": 1260,
      "##⚪": 1261,
      "##↙": 1262,
      "##": 1263,
      "##♬": 1264,
      "##☑": 1265,
      "##└": 1266,
      "##׍": 1267,
      "##": 1268,
      "##ⲟ": 1269,
      "##": 1270,
      "##✪": 1271,
      "##≅": 1272,
      "##": 1273,
      "##⇓": 1274,
      "##": 1275,
      "##⚫": 1276,
      "##⊦": 1277,
      "##‹": 1278,
      "##⚡": 1279,
      "##《": 1280,
      "##ӏ": 1281,
      "##⭕": 1282,
      "##ות": 1283,
      "##ים": 1284,
      "##ור": 1285,
      "##ני": 1286,
      "של": 1287,
      "##ול": 1288,
      "##ית": 1289,
      "המ": 1290,
      "##יר": 1291,
      "את": 1292,
      "##נו": 1293,
      "##יו": 1294,
      "##בר": 1295,
      "##וד": 1296,
      "##יה": 1297,
      "##יל": 1298,
      "##וב": 1299,
      "לה": 1300,
      "##נה": 1301,
      "לא": 1302,
      "על": 1303,
      "##רי": 1304,
      "##ון": 1305,
      "##ין": 1306,
      "##וא": 1307,
      "##שר": 1308,
      "הא": 1309,
      "##לי": 1310,
      "##ומ": 1311,
      "במ": 1312,
      "##די": 1313,
      "##תי": 1314,
      "##ופ": 1315,
      "##בי": 1316,
      "##מו": 1317,
      "##רו": 1318,
      "##שי": 1319,
      "##נים": 1320,
      "הי": 1321,
      "##יות": 1322,
      "הח": 1323,
      "##כל": 1324,
      "שה": 1325,
      "וה": 1326,
      "##נות": 1327,
      "##וק": 1328,
      "##יד": 1329,
      "למ": 1330,
      "הש": 1331,
      "##ום": 1332,
      "הע": 1333,
      "הת": 1334,
      "##שה": 1335,
      "בא": 1336,
      "##וע": 1337,
      "מה": 1338,
      "##יק": 1339,
      "בע": 1340,
      "##חר": 1341,
      "##מה": 1342,
      "##לה": 1343,
      "##פר": 1344,
      "##יב": 1345,
      "##וס": 1346,
      "הר": 1347,
      "##וצ": 1348,
      "##וח": 1349,
      "##לא": 1350,
      "כל": 1351,
      "##יע": 1352,
      "הוא": 1353,
      "##לו": 1354,
      "אי": 1355,
      "מש": 1356,
      "מא": 1357,
      "##יים": 1358,
      "##וג": 1359,
      "##נת": 1360,
      "##קר": 1361,
      "או": 1362,
      "זה": 1363,
      "עם": 1364,
      "##בל": 1365,
      "וא": 1366,
      "בש": 1367,
      "##וש": 1368,
      "הס": 1369,
      "##דר": 1370,
      "##טי": 1371,
      "הפ": 1372,
      "כי": 1373,
      "בה": 1374,
      "ומ": 1375,
      "לע": 1376,
      "מע": 1377,
      "##יי": 1378,
      "מת": 1379,
      "הק": 1380,
      "##בע": 1381,
      "##טר": 1382,
      "##אל": 1383,
      "מס": 1384,
      "הה": 1385,
      "הג": 1386,
      "##יש": 1387,
      "##רכ": 1388,
      "##בה": 1389,
      "##חד": 1390,
      "בת": 1391,
      "לפ": 1392,
      "גם": 1393,
      "שמ": 1394,
      "##זה": 1395,
      "##וי": 1396,
      "שא": 1397,
      "##נס": 1398,
      "##רא": 1399,
      "##שים": 1400,
      "הצ": 1401,
      "##וכ": 1402,
      "##יא": 1403,
      "אות": 1404,
      "##מי": 1405,
      "לש": 1406,
      "בי": 1407,
      "יש": 1408,
      "##חת": 1409,
      "הכ": 1410,
      "##מת": 1411,
      "הב": 1412,
      "##יפ": 1413,
      "##מש": 1414,
      "לב": 1415,
      "##רים": 1416,
      "##מים": 1417,
      "##את": 1418,
      "##שו": 1419,
      "היא": 1420,
      "וב": 1421,
      "##יס": 1422,
      "ול": 1423,
      "##ותר": 1424,
      "בח": 1425,
      "אל": 1426,
      "##דים": 1427,
      "##שת": 1428,
      "הנ": 1429,
      "מח": 1430,
      "##נית": 1431,
      "לח": 1432,
      "##כול": 1433,
      "##עות": 1434,
      "הד": 1435,
      "##כו": 1436,
      "מק": 1437,
      "בר": 1438,
      "##עת": 1439,
      "מצ": 1440,
      "##יון": 1441,
      "##ירות": 1442,
      "בס": 1443,
      "לי": 1444,
      "היה": 1445,
      "##ורה": 1446,
      "##בים": 1447,
      "##מן": 1448,
      "##לק": 1449,
      "##עה": 1450,
      "##לים": 1451,
      "##אי": 1452,
      "##רת": 1453,
      "##דה": 1454,
      "##וה": 1455,
      "שב": 1456,
      "##ירה": 1457,
      "וע": 1458,
      "יותר": 1459,
      "##רה": 1460,
      "אמ": 1461,
      "##בות": 1462,
      "לק": 1463,
      "##חה": 1464,
      "##רג": 1465,
      "##שות": 1466,
      "20": 1467,
      "##יום": 1468,
      "לכ": 1469,
      "אם": 1470,
      "##שראל": 1471,
      "##ולם": 1472,
      "##מצ": 1473,
      "##יצ": 1474,
      "##פת": 1475,
      "##כה": 1476,
      "מב": 1477,
      "כא": 1478,
      "##מות": 1479,
      "##דו": 1480,
      "אנ": 1481,
      "אני": 1482,
      "##פק": 1483,
      "##יט": 1484,
      "##וז": 1485,
      "הז": 1486,
      "##חות": 1487,
      "##נט": 1488,
      "אבל": 1489,
      "מכ": 1490,
      "##חק": 1491,
      "המש": 1492,
      "##אה": 1493,
      "לת": 1494,
      "##נג": 1495,
      "מי": 1496,
      "##פי": 1497,
      "##פשר": 1498,
      "##וט": 1499,
      "##וף": 1500,
      "אחר": 1501,
      "שי": 1502,
      "##לת": 1503,
      "וכ": 1504,
      "בין": 1505,
      "##אים": 1506,
      "##סק": 1507,
      "##ילה": 1508,
      "##בוד": 1509,
      "בג": 1510,
      "##ורים": 1511,
      "##רח": 1512,
      "רק": 1513,
      "ממ": 1514,
      "שע": 1515,
      "כמו": 1516,
      "כך": 1517,
      "##וך": 1518,
      "הם": 1519,
      "##נק": 1520,
      "##כת": 1521,
      "##לב": 1522,
      "בק": 1523,
      "##וני": 1524,
      "יכול": 1525,
      "##אות": 1526,
      "##ולה": 1527,
      "לו": 1528,
      "##כות": 1529,
      "מג": 1530,
      "בב": 1531,
      "עצ": 1532,
      "פר": 1533,
      "##כם": 1534,
      "בפ": 1535,
      "עד": 1536,
      "לצ": 1537,
      "##דם": 1538,
      "##ברה": 1539,
      "##לות": 1540,
      "לג": 1541,
      "##אש": 1542,
      "פע": 1543,
      "##לט": 1544,
      "##בת": 1545,
      "##ניה": 1546,
      "##ינו": 1547,
      "שנ": 1548,
      "בכ": 1549,
      "להת": 1550,
      "##יתה": 1551,
      "##ונים": 1552,
      "אחד": 1553,
      "לד": 1554,
      "##יג": 1555,
      "##פה": 1556,
      "##ינ": 1557,
      "לס": 1558,
      "##ונ": 1559,
      "בכל": 1560,
      "##קה": 1561,
      "הט": 1562,
      "##רות": 1563,
      "##כים": 1564,
      "כדי": 1565,
      "יה": 1566,
      "##מוד": 1567,
      "##טים": 1568,
      "##דות": 1569,
      "בו": 1570,
      "##עים": 1571,
      "ולא": 1572,
      "##ובה": 1573,
      "##של": 1574,
      "אח": 1575,
      "חבר": 1576,
      "##אר": 1577,
      "##ונה": 1578,
      "בד": 1579,
      "##חס": 1580,
      "##בור": 1581,
      "שק": 1582,
      "##ילו": 1583,
      "##פים": 1584,
      "בצ": 1585,
      "מפ": 1586,
      "##חי": 1587,
      "19": 1588,
      "חש": 1589,
      "##ומר": 1590,
      "ישראל": 1591,
      "##כן": 1592,
      "##יותר": 1593,
      "אך": 1594,
      "היו": 1595,
      "אין": 1596,
      "שלא": 1597,
      "##מר": 1598,
      "##ברים": 1599,
      "זו": 1600,
      "##או": 1601,
      "##דת": 1602,
      "##ולי": 1603,
      "##ניות": 1604,
      "לאחר": 1605,
      "שלו": 1606,
      "שלה": 1607,
      "ידי": 1608,
      "##ירים": 1609,
      "##ער": 1610,
      "##זור": 1611,
      "אותו": 1612,
      "זאת": 1613,
      "בני": 1614,
      "##חנו": 1615,
      "##יכ": 1616,
      "##פט": 1617,
      "##רץ": 1618,
      "##וו": 1619,
      "בית": 1620,
      "##חים": 1621,
      "##דול": 1622,
      "##תר": 1623,
      "##חו": 1624,
      "##צה": 1625,
      "להיות": 1626,
      "##ורת": 1627,
      "וג": 1628,
      "##עי": 1629,
      "נוס": 1630,
      "אשר": 1631,
      "אז": 1632,
      "לפני": 1633,
      "##צוע": 1634,
      "עוד": 1635,
      "##מיד": 1636,
      "וש": 1637,
      "מיל": 1638,
      "ביותר": 1639,
      "יצ": 1640,
      "כש": 1641,
      "##ריך": 1642,
      "##קום": 1643,
      "מד": 1644,
      "##ופה": 1645,
      "##00": 1646,
      "##יהם": 1647,
      "##ראה": 1648,
      "##סט": 1649,
      "##פות": 1650,
      "הזה": 1651,
      "חד": 1652,
      "##חש": 1653,
      "##קים": 1654,
      "##גיע": 1655,
      "##יתי": 1656,
      "הבי": 1657,
      "##פו": 1658,
      "בנו": 1659,
      "מר": 1660,
      "##ורי": 1661,
      "##תה": 1662,
      "##רך": 1663,
      "##ורך": 1664,
      "##ילות": 1665,
      "##ופן": 1666,
      "מאוד": 1667,
      "נית": 1668,
      "כמ": 1669,
      "##צי": 1670,
      "תק": 1671,
      "##טה": 1672,
      "##וצה": 1673,
      "##ניים": 1674,
      "שכ": 1675,
      "##חרו": 1676,
      "##פור": 1677,
      "שהוא": 1678,
      "כבר": 1679,
      "201": 1680,
      "הל": 1681,
      "##בודה": 1682,
      "##וות": 1683,
      "##קב": 1684,
      "##סת": 1685,
      "אלא": 1686,
      "לר": 1687,
      "בט": 1688,
      "מל": 1689,
      "קר": 1690,
      "המת": 1691,
      "##נד": 1692,
      "##גר": 1693,
      "##ימ": 1694,
      "מז": 1695,
      "##בו": 1696,
      "וח": 1697,
      "##צל": 1698,
      "פי": 1699,
      "נת": 1700,
      "שני": 1701,
      "##צע": 1702,
      "##ולים": 1703,
      "##ירת": 1704,
      "דבר": 1705,
      "##רכז": 1706,
      "אפ": 1707,
      "##קות": 1708,
      "200": 1709,
      "השי": 1710,
      "כמה": 1711,
      "##\"ל": 1712,
      "##יקה": 1713,
      "הכל": 1714,
      "שם": 1715,
      "מדי": 1716,
      "לנו": 1717,
      "חי": 1718,
      "שלי": 1719,
      "אפשר": 1720,
      "ולה": 1721,
      "חלק": 1722,
      "##סי": 1723,
      "המח": 1724,
      "##ידה": 1725,
      "הנו": 1726,
      "##מד": 1727,
      "##ומי": 1728,
      "##סה": 1729,
      "##גד": 1730,
      "##וץ": 1731,
      "בל": 1732,
      "##ילים": 1733,
      "אר": 1734,
      "##גע": 1735,
      "היום": 1736,
      "##וכל": 1737,
      "ות": 1738,
      "הפר": 1739,
      "##שא": 1740,
      "טוב": 1741,
      "כת": 1742,
      "##הל": 1743,
      "##בוע": 1744,
      "כן": 1745,
      "כאשר": 1746,
      "##ומה": 1747,
      "##גל": 1748,
      "##זר": 1749,
      "##סף": 1750,
      "אחרי": 1751,
      "שת": 1752,
      "##יוחד": 1753,
      "##טח": 1754,
      "המק": 1755,
      "##פל": 1756,
      "##צר": 1757,
      "לכל": 1758,
      "##כי": 1759,
      "##ניין": 1760,
      "##גה": 1761,
      "ניתן": 1762,
      "ראש": 1763,
      "בז": 1764,
      "##ורות": 1765,
      "##תיים": 1766,
      "המס": 1767,
      "שיש": 1768,
      "אנחנו": 1769,
      "##דרך": 1770,
      "נכ": 1771,
      "##נם": 1772,
      "##יבור": 1773,
      "##רט": 1774,
      "יד": 1775,
      "באופן": 1776,
      "נע": 1777,
      "יע": 1778,
      "ונ": 1779,
      "##שהו": 1780,
      "##אשו": 1781,
      "למע": 1782,
      "##רכת": 1783,
      "##ואה": 1784,
      "##ar": 1785,
      "מט": 1786,
      "##ביב": 1787,
      "שנים": 1788,
      "תח": 1789,
      "##שמ": 1790,
      "##ווה": 1791,
      "##רב": 1792,
      "##יקר": 1793,
      "המע": 1794,
      "##שק": 1795,
      "##דובר": 1796,
      "אחת": 1797,
      "ממש": 1798,
      "בתח": 1799,
      "##פע": 1800,
      "לט": 1801,
      "שר": 1802,
      "התק": 1803,
      "כול": 1804,
      "##צב": 1805,
      "קט": 1806,
      "##מוש": 1807,
      "הרבה": 1808,
      "אף": 1809,
      "##ביר": 1810,
      "מספר": 1811,
      "##ודה": 1812,
      "##וחות": 1813,
      "יל": 1814,
      "גב": 1815,
      "אמר": 1816,
      "##קרה": 1817,
      "נפ": 1818,
      "##סים": 1819,
      "הבר": 1820,
      "##בק": 1821,
      "##תו": 1822,
      "האחרו": 1823,
      "##בד": 1824,
      "ג'": 1825,
      "נק": 1826,
      "שלנו": 1827,
      "אותה": 1828,
      "במס": 1829,
      "##ומים": 1830,
      "##צות": 1831,
      "עבור": 1832,
      "##תח": 1833,
      "להם": 1834,
      "תה": 1835,
      "מוצ": 1836,
      "##יעה": 1837,
      "##קרים": 1838,
      "##צת": 1839,
      "##ונות": 1840,
      "##כש": 1841,
      "גדול": 1842,
      "##דינה": 1843,
      "החברה": 1844,
      "##בא": 1845,
      "ללא": 1846,
      "אלה": 1847,
      "##ולוג": 1848,
      "##כר": 1849,
      "##מית": 1850,
      "##תם": 1851,
      "10": 1852,
      "לעשות": 1853,
      "##ציה": 1854,
      "בן": 1855,
      "##לם": 1856,
      "##מור": 1857,
      "צריך": 1858,
      "אותם": 1859,
      "יום": 1860,
      "במש": 1861,
      "##יבה": 1862,
      "אדם": 1863,
      "##אלי": 1864,
      "וגם": 1865,
      "עו": 1866,
      "הרי": 1867,
      "בבית": 1868,
      "##אן": 1869,
      "##יני": 1870,
      "רבים": 1871,
      "שח": 1872,
      "##זק": 1873,
      "הראש": 1874,
      "##שרד": 1875,
      "##ילת": 1876,
      "##מל": 1877,
      "אלו": 1878,
      "אנו": 1879,
      "##ירוע": 1880,
      "##כנ": 1881,
      "לרא": 1882,
      "עוב": 1883,
      "##ירי": 1884,
      "##עם": 1885,
      "##יח": 1886,
      "##ליך": 1887,
      "לפי": 1888,
      "הארץ": 1889,
      "לנ": 1890,
      "##קט": 1891,
      "##פס": 1892,
      "ור": 1893,
      "##טרה": 1894,
      "##ודי": 1895,
      "נה": 1896,
      "באמצ": 1897,
      "גר": 1898,
      "משמ": 1899,
      "##ומות": 1900,
      "##גים": 1901,
      "יהיה": 1902,
      "אנשים": 1903,
      "##תק": 1904,
      "שנה": 1905,
      "איש": 1906,
      "אתה": 1907,
      "##תא": 1908,
      "התי": 1909,
      "##לח": 1910,
      "הייתה": 1911,
      "הראשו": 1912,
      "##צים": 1913,
      "זמן": 1914,
      "יוד": 1915,
      "השני": 1916,
      "הן": 1917,
      "בלי": 1918,
      "##ובות": 1919,
      "##דור": 1920,
      "משפ": 1921,
      "##er": 1922,
      "##ברת": 1923,
      "האם": 1924,
      "##מין": 1925,
      "##נון": 1926,
      "שלהם": 1927,
      "החד": 1928,
      "מיליון": 1929,
      "##וסי": 1930,
      "בישראל": 1931,
      "##ריק": 1932,
      "##ודות": 1933,
      "##יפה": 1934,
      "עדי": 1935,
      "לכם": 1936,
      "הקר": 1937,
      "##מא": 1938,
      "##לל": 1939,
      "##קד": 1940,
      "##טו": 1941,
      "אס": 1942,
      "##עד": 1943,
      "##ובים": 1944,
      "כאן": 1945,
      "##עו": 1946,
      "דרך": 1947,
      "סי": 1948,
      "##ותו": 1949,
      "די": 1950,
      "הספר": 1951,
      "##רום": 1952,
      "כשה": 1953,
      "ועוד": 1954,
      "רב": 1955,
      "מדובר": 1956,
      "אינ": 1957,
      "תע": 1958,
      "רח": 1959,
      "נמצ": 1960,
      "להע": 1961,
      "##זו": 1962,
      "מול": 1963,
      "##ישה": 1964,
      "##כב": 1965,
      "המא": 1966,
      "##ולר": 1967,
      "גבוה": 1968,
      "##פול": 1969,
      "במקום": 1970,
      "וק": 1971,
      "אור": 1972,
      "המצ": 1973,
      "##ובן": 1974,
      "רא": 1975,
      "##בח": 1976,
      "ספר": 1977,
      "##גש": 1978,
      "##ידע": 1979,
      "ברי": 1980,
      "וס": 1981,
      "מן": 1982,
      "הראשון": 1983,
      "מנ": 1984,
      "##פקיד": 1985,
      "רצ": 1986,
      "##יבות": 1987,
      "שבה": 1988,
      "##\"ר": 1989,
      "לקבל": 1990,
      "##הלך": 1991,
      "##ולות": 1992,
      "##רד": 1993,
      "##קס": 1994,
      "שג": 1995,
      "פעם": 1996,
      "##ומת": 1997,
      "דו": 1998,
      "כלל": 1999,
      "##לון": 2000,
      "המשפט": 2001,
      "##נוע": 2002,
      "גור": 2003,
      "היתה": 2004,
      "אתם": 2005,
      "לל": 2006,
      "האמ": 2007,
      "##ברות": 2008,
      "##מונה": 2009,
      "##יאות": 2010,
      "כה": 2011,
      "תש": 2012,
      "##ודש": 2013,
      "##ראש": 2014,
      "הרו": 2015,
      "##קי": 2016,
      "##ברי": 2017,
      "מנה": 2018,
      "אינו": 2019,
      "אלי": 2020,
      "עמ": 2021,
      "במח": 2022,
      "בשנת": 2023,
      "אב": 2024,
      "##גרת": 2025,
      "שהם": 2026,
      "##וצר": 2027,
      "חברת": 2028,
      "בלב": 2029,
      "##פון": 2030,
      "באמצעות": 2031,
      "##בוצ": 2032,
      "חוק": 2033,
      "##גת": 2034,
      "##קת": 2035,
      "שהיא": 2036,
      "העולם": 2037,
      "גד": 2038,
      "##ואר": 2039,
      "היל": 2040,
      "חשוב": 2041,
      "##קו": 2042,
      "התח": 2043,
      "##ודים": 2044,
      "##טור": 2045,
      "מלא": 2046,
      "מקום": 2047,
      "שירות": 2048,
      "הלי": 2049,
      "שבו": 2050,
      "תר": 2051,
      "##יוון": 2052,
      "פשו": 2053,
      "עסק": 2054,
      "מוס": 2055,
      "בהם": 2056,
      "נס": 2057,
      "בנ": 2058,
      "##עט": 2059,
      "אד": 2060,
      "##ופי": 2061,
      "בעולם": 2062,
      "##משלה": 2063,
      "האחר": 2064,
      "מתח": 2065,
      "##פרי": 2066,
      "תל": 2067,
      "##יז": 2068,
      "לז": 2069,
      "##יפור": 2070,
      "##לית": 2071,
      "צרי": 2072,
      "##בית": 2073,
      "אחרים": 2074,
      "העיר": 2075,
      "במהלך": 2076,
      "##et": 2077,
      "משת": 2078,
      "נגד": 2079,
      "##ועל": 2080,
      "למצ": 2081,
      "##נוי": 2082,
      "איך": 2083,
      "##כון": 2084,
      "##גיש": 2085,
      "שקל": 2086,
      "בעל": 2087,
      "בקר": 2088,
      "לך": 2089,
      "##תיות": 2090,
      "##ווי": 2091,
      "##ברו": 2092,
      "חיים": 2093,
      "##גות": 2094,
      "##ריות": 2095,
      "עצמו": 2096,
      "##ביא": 2097,
      "##גו": 2098,
      "ואת": 2099,
      "##וקר": 2100,
      "ארו": 2101,
      "אביב": 2102,
      "החל": 2103,
      "##ליט": 2104,
      "ועל": 2105,
      "מוכ": 2106,
      "שונים": 2107,
      "##טל": 2108,
      "להצ": 2109,
      "##פש": 2110,
      "ניס": 2111,
      "##שיך": 2112,
      "פני": 2113,
      "הול": 2114,
      "אומר": 2115,
      "והמ": 2116,
      "והוא": 2117,
      "קור": 2118,
      "הופ": 2119,
      "##ינה": 2120,
      "##חלט": 2121,
      "ית": 2122,
      "הני": 2123,
      "בשי": 2124,
      "עדיין": 2125,
      "מנת": 2126,
      "##ובע": 2127,
      "שאני": 2128,
      "המדינה": 2129,
      "נש": 2130,
      "משמעות": 2131,
      "חל": 2132,
      "עליו": 2133,
      "לקר": 2134,
      "תוכ": 2135,
      "12": 2136,
      "##בוצה": 2137,
      "##ירוש": 2138,
      "מוע": 2139,
      "הגדול": 2140,
      "##ינים": 2141,
      "בתי": 2142,
      "נא": 2143,
      "חז": 2144,
      "לכך": 2145,
      "ביום": 2146,
      "התע": 2147,
      "חוש": 2148,
      "מכל": 2149,
      "פחות": 2150,
      "קשה": 2151,
      "הכנס": 2152,
      "שש": 2153,
      "##פיק": 2154,
      "המב": 2155,
      "תוך": 2156,
      "##חור": 2157,
      "בעלי": 2158,
      "##וצאה": 2159,
      "העוב": 2160,
      "לשי": 2161,
      "מוד": 2162,
      "##te": 2163,
      "חס": 2164,
      "##וקה": 2165,
      "##ייס": 2166,
      "מקצוע": 2167,
      "##\"ב": 2168,
      "אפילו": 2169,
      "##נן": 2170,
      "מור": 2171,
      "טיפ": 2172,
      "##ובי": 2173,
      "##ינם": 2174,
      "##גן": 2175,
      "##פרס": 2176,
      "בדרך": 2177,
      "דולר": 2178,
      "אומ": 2179,
      "יח": 2180,
      "סט": 2181,
      "ובע": 2182,
      "יוצ": 2183,
      "##in": 2184,
      "##וצים": 2185,
      "15": 2186,
      "פל": 2187,
      "##יעים": 2188,
      "שלכם": 2189,
      "השת": 2190,
      "##יבל": 2191,
      "##מס": 2192,
      "רוצה": 2193,
      "ופ": 2194,
      "תמיד": 2195,
      "שתי": 2196,
      "יחד": 2197,
      "רג": 2198,
      "מוש": 2199,
      "##ילי": 2200,
      "אולי": 2201,
      "מאז": 2202,
      "##כשיו": 2203,
      "##שרה": 2204,
      "18": 2205,
      "ביק": 2206,
      "האי": 2207,
      "הור": 2208,
      "למשל": 2209,
      "##on": 2210,
      "בתחום": 2211,
      "כפי": 2212,
      "##שב": 2213,
      "פרי": 2214,
      "##\"ח": 2215,
      "##טוח": 2216,
      "##מנו": 2217,
      "כח": 2218,
      "##שם": 2219,
      "##צור": 2220,
      "אופ": 2221,
      "אה": 2222,
      "##משך": 2223,
      "טע": 2224,
      "שזה": 2225,
      "##יבים": 2226,
      "##ושים": 2227,
      "הוד": 2228,
      "##שפ": 2229,
      "יחס": 2230,
      "במע": 2231,
      "עבודה": 2232,
      "בעיקר": 2233,
      "##נשים": 2234,
      "ולכן": 2235,
      "בשל": 2236,
      "כד": 2237,
      "##בעה": 2238,
      "##ומית": 2239,
      "יכולים": 2240,
      "רבות": 2241,
      "##יוני": 2242,
      "אצל": 2243,
      "##גור": 2244,
      "שלך": 2245,
      "##מם": 2246,
      "איר": 2247,
      "פשוט": 2248,
      "וכן": 2249,
      "נח": 2250,
      "בתוך": 2251,
      "וד": 2252,
      "לראות": 2253,
      "משהו": 2254,
      "נראה": 2255,
      "במיוחד": 2256,
      "##יוק": 2257,
      "המשפ": 2258,
      "רע": 2259,
      "העבודה": 2260,
      "##\"מ": 2261,
      "להשת": 2262,
      "מהמ": 2263,
      "להב": 2264,
      "כיום": 2265,
      "וי": 2266,
      "##צד": 2267,
      "רוב": 2268,
      "##חשב": 2269,
      "בלבד": 2270,
      "##ופת": 2271,
      "##וצאות": 2272,
      "##ותה": 2273,
      "שהת": 2274,
      "למרות": 2275,
      "בצורה": 2276,
      "##צו": 2277,
      "##רוש": 2278,
      "##וקים": 2279,
      "הראשונה": 2280,
      "הממשלה": 2281,
      "##שראלי": 2282,
      "בתק": 2283,
      "##קבות": 2284,
      "נד": 2285,
      "להכ": 2286,
      "מתוך": 2287,
      "11": 2288,
      "##\"א": 2289,
      "הזמן": 2290,
      "עומ": 2291,
      "הגיע": 2292,
      "##מוך": 2293,
      "הרב": 2294,
      "הבית": 2295,
      "למה": 2296,
      "##מון": 2297,
      "שהיה": 2298,
      "##רונות": 2299,
      "##ופים": 2300,
      "דעת": 2301,
      "תא": 2302,
      "משחק": 2303,
      "הו": 2304,
      "אותי": 2305,
      "הלא": 2306,
      "כמעט": 2307,
      "##צח": 2308,
      "##זרח": 2309,
      "אית": 2310,
      "שאין": 2311,
      "קל": 2312,
      "הפע": 2313,
      "##בט": 2314,
      "השנה": 2315,
      "מתק": 2316,
      "##מנות": 2317,
      "##ניהם": 2318,
      "אג": 2319,
      "כולל": 2320,
      "##יחס": 2321,
      "בעצ": 2322,
      "##דרה": 2323,
      "##שרות": 2324,
      "##ליים": 2325,
      "עלי": 2326,
      "##ודם": 2327,
      "שמע": 2328,
      "##חז": 2329,
      "##an": 2330,
      "##יתר": 2331,
      "פור": 2332,
      "וז": 2333,
      "##קל": 2334,
      "##קע": 2335,
      "חדש": 2336,
      "צע": 2337,
      "##טרנט": 2338,
      "שיע": 2339,
      "לפע": 2340,
      "עש": 2341,
      "##וחים": 2342,
      "למצוא": 2343,
      "מעט": 2344,
      "שוב": 2345,
      "##ופות": 2346,
      "##ירו": 2347,
      "שיו": 2348,
      "גל": 2349,
      "בנוסף": 2350,
      "סוג": 2351,
      "וזה": 2352,
      "הכי": 2353,
      "במסגרת": 2354,
      "העסק": 2355,
      "האדם": 2356,
      "שפ": 2357,
      "##כונה": 2358,
      "##רכות": 2359,
      "##סטי": 2360,
      "להפ": 2361,
      "קרי": 2362,
      "##וקא": 2363,
      "לכן": 2364,
      "##יטה": 2365,
      "ההת": 2366,
      "##טית": 2367,
      "פול": 2368,
      "ומת": 2369,
      "##ריים": 2370,
      "אולם": 2371,
      "החיים": 2372,
      "##טיפול": 2373,
      "ha": 2374,
      "##לונות": 2375,
      "חברות": 2376,
      "##פתח": 2377,
      "##ופר": 2378,
      "##ולד": 2379,
      "##טחון": 2380,
      "##כתב": 2381,
      "והת": 2382,
      "הדין": 2383,
      "וכל": 2384,
      "נכון": 2385,
      "ילדים": 2386,
      "##וכלו": 2387,
      "##שרים": 2388,
      "הנת": 2389,
      "##ינוך": 2390,
      "בפני": 2391,
      "##ובת": 2392,
      "קיי": 2393,
      "מהם": 2394,
      "שבע": 2395,
      "##יין": 2396,
      "להגיע": 2397,
      "בגלל": 2398,
      "נוספים": 2399,
      "##כויות": 2400,
      "##אית": 2401,
      "אינה": 2402,
      "ומה": 2403,
      "מיוחד": 2404,
      "אחרת": 2405,
      "##שיים": 2406,
      "##שורת": 2407,
      "ניצ": 2408,
      "החלט": 2409,
      "פרס": 2410,
      "##קור": 2411,
      "##וחה": 2412,
      "##\"ד": 2413,
      "לבית": 2414,
      "##_0": 2415,
      "להג": 2416,
      "המוע": 2417,
      "יור": 2418,
      "##נע": 2419,
      "##es": 2420,
      "ומע": 2421,
      "##שימה": 2422,
      "##ליח": 2423,
      "לדבר": 2424,
      "##בחר": 2425,
      "רכ": 2426,
      "פרו": 2427,
      "טר": 2428,
      "##רכים": 2429,
      "כזה": 2430,
      "##כנס": 2431,
      "##נחנו": 2432,
      "כס": 2433,
      "לעצ": 2434,
      "בזמן": 2435,
      "העל": 2436,
      "להס": 2437,
      "בעקבות": 2438,
      "##ודשים": 2439,
      "##om": 2440,
      "ברח": 2441,
      "מערכת": 2442,
      "בדי": 2443,
      "התא": 2444,
      "לבין": 2445,
      "עכשיו": 2446,
      "פס": 2447,
      "##or": 2448,
      "##מול": 2449,
      "לגבי": 2450,
      "הנה": 2451,
      "##ביל": 2452,
      "נג": 2453,
      "משרד": 2454,
      "ויש": 2455,
      "##וסט": 2456,
      "שכל": 2457,
      "##שית": 2458,
      "##רגון": 2459,
      "שצ": 2460,
      "החוק": 2461,
      "##יקט": 2462,
      "המט": 2463,
      "הזו": 2464,
      "באמת": 2465,
      "הבע": 2466,
      "##ניס": 2467,
      "##נאי": 2468,
      "קול": 2469,
      "השלי": 2470,
      "מבחי": 2471,
      "##כס": 2472,
      "##etz": 2473,
      "פת": 2474,
      "נוסף": 2475,
      "haar": 2476,
      "haaretz": 2477,
      "בארץ": 2478,
      "ספק": 2479,
      "המל": 2480,
      "##מבר": 2481,
      "##ברס": 2482,
      "##פוא": 2483,
      "בפר": 2484,
      "##כנולוג": 2485,
      "הגב": 2486,
      "##שור": 2487,
      "##נר": 2488,
      "דברים": 2489,
      "##נטים": 2490,
      "30": 2491,
      "##עור": 2492,
      "ככל": 2493,
      "##ניק": 2494,
      "##טרים": 2495,
      "##ויות": 2496,
      "##מנים": 2497,
      "קו": 2498,
      "##\"י": 2499,
      "מרג": 2500,
      "##כ\"ל": 2501,
      "במשך": 2502,
      "מומ": 2503,
      "מרכז": 2504,
      "ובה": 2505,
      "##בלת": 2506,
      "בדיוק": 2507,
      "##ביע": 2508,
      "ימים": 2509,
      "##יצוב": 2510,
      "לבי": 2511,
      "הפס": 2512,
      "אוה": 2513,
      "##en": 2514,
      "##וסר": 2515,
      "מסוג": 2516,
      "ועד": 2517,
      "ואני": 2518,
      "בלתי": 2519,
      "המרכז": 2520,
      "והא": 2521,
      "הדבר": 2522,
      "##אלה": 2523,
      "האחרונה": 2524,
      "קצת": 2525,
      "בהתא": 2526,
      "##כור": 2527,
      "כתב": 2528,
      "##משיך": 2529,
      "##יבת": 2530,
      "##רה\"ב": 2531,
      "##חרות": 2532,
      "##ואים": 2533,
      "##ופו": 2534,
      "טבע": 2535,
      "שעות": 2536,
      "##נגד": 2537,
      "למו": 2538,
      "לעומת": 2539,
      "##רכה": 2540,
      "##נהל": 2541,
      "##פורט": 2542,
      "הדי": 2543,
      "##וציא": 2544,
      "מוז": 2545,
      "##ידות": 2546,
      "האחרון": 2547,
      "תכ": 2548,
      "שמו": 2549,
      "##מך": 2550,
      "##ודית": 2551,
      "ער": 2552,
      "כנ": 2553,
      "תפ": 2554,
      "יכולה": 2555,
      "14": 2556,
      "מחיר": 2557,
      "##ציג": 2558,
      "##ביעה": 2559,
      "##וסיף": 2560,
      "13": 2561,
      "הצד": 2562,
      "##טת": 2563,
      "ברו": 2564,
      "##נטי": 2565,
      "##עתי": 2566,
      "בכלל": 2567,
      "וצ": 2568,
      "אש": 2569,
      "##יהן": 2570,
      "##גי": 2571,
      "קבוצ": 2572,
      "000": 2573,
      "ממנו": 2574,
      "ובי": 2575,
      "שנת": 2576,
      "ספ": 2577,
      "בכך": 2578,
      "##ציות": 2579,
      "##שיא": 2580,
      "##חל": 2581,
      "מופ": 2582,
      "מוג": 2583,
      "##טע": 2584,
      "##al": 2585,
      "כר": 2586,
      "שום": 2587,
      "יודע": 2588,
      "הציבור": 2589,
      "הייתי": 2590,
      "##דל": 2591,
      "לדעת": 2592,
      "שאל": 2593,
      "##טות": 2594,
      "##שיבה": 2595,
      "התר": 2596,
      "כמובן": 2597,
      "##גון": 2598,
      "מתי": 2599,
      "ואף": 2600,
      "ממו": 2601,
      "מלח": 2602,
      "##שרת": 2603,
      "##יונות": 2604,
      "יו": 2605,
      "שבוע": 2606,
      "##לול": 2607,
      "ובמ": 2608,
      "הזאת": 2609,
      "שנות": 2610,
      "17": 2611,
      "ליי": 2612,
      "עבוד": 2613,
      "פה": 2614,
      "מצד": 2615,
      "תהיה": 2616,
      "199": 2617,
      "##בלים": 2618,
      "היר": 2619,
      "##דרים": 2620,
      "ומו": 2621,
      "דור": 2622,
      "מעבר": 2623,
      "מעל": 2624,
      "##נסה": 2625,
      "16": 2626,
      "בעת": 2627,
      "תחת": 2628,
      "גדולה": 2629,
      "##ליות": 2630,
      "האחרונות": 2631,
      "##וביל": 2632,
      "##\"כ": 2633,
      "##יקים": 2634,
      "##רוץ": 2635,
      "##רון": 2636,
      "עבר": 2637,
      "הפל": 2638,
      "##ווח": 2639,
      "##שוב": 2640,
      "הכול": 2641,
      "במקרה": 2642,
      "שונות": 2643,
      "במה": 2644,
      "שימוש": 2645,
      "אלף": 2646,
      "##זיה": 2647,
      "דין": 2648,
      "רבי": 2649,
      "דווקא": 2650,
      "למש": 2651,
      "בעוד": 2652,
      "יס": 2653,
      "מזה": 2654,
      "בעיר": 2655,
      "המד": 2656,
      "נמצא": 2657,
      "גיל": 2658,
      "ברור": 2659,
      "טובה": 2660,
      "##ודת": 2661,
      "קשר": 2662,
      "##לוט": 2663,
      "באי": 2664,
      "##טיבי": 2665,
      "מידע": 2666,
      "בראש": 2667,
      "האלה": 2668,
      "כללי": 2669,
      "ואז": 2670,
      "##מע": 2671,
      "בעבר": 2672,
      "שס": 2673,
      "נוש": 2674,
      "אליו": 2675,
      "דר": 2676,
      "מוק": 2677,
      "##חדש": 2678,
      "השנים": 2679,
      "##דרת": 2680,
      "היח": 2681,
      "##ובל": 2682,
      "##קש": 2683,
      "##תיד": 2684,
      "לאורך": 2685,
      "כולם": 2686,
      "##גיעה": 2687,
      "רוצים": 2688,
      "נשים": 2689,
      "עמו": 2690,
      "כב": 2691,
      "הדרך": 2692,
      "מכן": 2693,
      "הדברים": 2694,
      "לתת": 2695,
      "##וחר": 2696,
      "##מיים": 2697,
      "מסת": 2698,
      "עשו": 2699,
      "אינם": 2700,
      "החדש": 2701,
      "באזור": 2702,
      "יב": 2703,
      "יא": 2704,
      "למס": 2705,
      "##יתוח": 2706,
      "והע": 2707,
      "##נייה": 2708,
      "שלוש": 2709,
      "מבי": 2710,
      "כלומר": 2711,
      "לצד": 2712,
      "##שלום": 2713,
      "איכות": 2714,
      "ברא": 2715,
      "##מרי": 2716,
      "למעשה": 2717,
      "משום": 2718,
      "ואם": 2719,
      "המשחק": 2720,
      "שית": 2721,
      "שכן": 2722,
      "25": 2723,
      "חשב": 2724,
      "מני": 2725,
      "הרג": 2726,
      "מנו": 2727,
      "##יוע": 2728,
      "עולה": 2729,
      "עז": 2730,
      "לתק": 2731,
      "כוח": 2732,
      "##לווי": 2733,
      "הגד": 2734,
      "##בעת": 2735,
      "דקות": 2736,
      "##כיר": 2737,
      "##ידים": 2738,
      "ובר": 2739,
      "רש": 2740,
      "באתר": 2741,
      "##אב": 2742,
      "לפחות": 2743,
      "הילדים": 2744,
      "##ביבה": 2745,
      "צפו": 2746,
      "האמריק": 2747,
      "##מח": 2748,
      "האינ": 2749,
      "##קרא": 2750,
      "עור": 2751,
      "ראשון": 2752,
      "והיא": 2753,
      "##נתי": 2754,
      "##tel": 2755,
      "ליל": 2756,
      "שמת": 2757,
      "##מט": 2758,
      "חומ": 2759,
      "שחק": 2760,
      "משפט": 2761,
      "מיד": 2762,
      "##ירועים": 2763,
      "##גוד": 2764,
      "לרכ": 2765,
      "שנו": 2766,
      "##ליה": 2767,
      "הגר": 2768,
      "הקט": 2769,
      "##בורה": 2770,
      "להבין": 2771,
      "##ורג": 2772,
      "##נועה": 2773,
      "##ליק": 2774,
      "##ומן": 2775,
      "צריכים": 2776,
      "רוח": 2777,
      "##נא": 2778,
      "הלב": 2779,
      "אבי": 2780,
      "מטר": 2781,
      "##צרים": 2782,
      "##סיס": 2783,
      "עושה": 2784,
      "שבי": 2785,
      "##זרת": 2786,
      "##נתה": 2787,
      "מיי": 2788,
      "שוק": 2789,
      "אתמול": 2790,
      "הישראלי": 2791,
      "##עיף": 2792,
      "##מודים": 2793,
      "##ועדה": 2794,
      "##יית": 2795,
      "כסף": 2796,
      "הברית": 2797,
      "המז": 2798,
      "לבצע": 2799,
      "אנשי": 2800,
      "לפר": 2801,
      "לזה": 2802,
      "##כונות": 2803,
      "בהתאם": 2804,
      "##ונית": 2805,
      "השק": 2806,
      "##חן": 2807,
      "##וון": 2808,
      "השל": 2809,
      "##טב": 2810,
      "##מק": 2811,
      "לבד": 2812,
      "המה": 2813,
      "מצב": 2814,
      "הרח": 2815,
      "ביט": 2816,
      "##ירושלים": 2817,
      "##יטת": 2818,
      "פעילות": 2819,
      "נות": 2820,
      "בסיס": 2821,
      "קודם": 2822,
      "ה'": 2823,
      "##otel": 2824,
      "השבוע": 2825,
      "הדר": 2826,
      "ומא": 2827,
      "העצ": 2828,
      "בשנים": 2829,
      "אותנו": 2830,
      "באר": 2831,
      "##דינות": 2832,
      "עיר": 2833,
      "הישראל": 2834,
      "חול": 2835,
      "מאפשר": 2836,
      "##זם": 2837,
      "כגון": 2838,
      "##דרות": 2839,
      "קטן": 2840,
      "צורך": 2841,
      "##שיות": 2842,
      "##כלה": 2843,
      "המג": 2844,
      "הבנק": 2845,
      "בנק": 2846,
      "בידי": 2847,
      "שנית": 2848,
      "##ציב": 2849,
      "##צא": 2850,
      "חודשים": 2851,
      "##ניהו": 2852,
      "אוכל": 2853,
      "פעולה": 2854,
      "בשעה": 2855,
      "הללו": 2856,
      "##תרון": 2857,
      "##רחב": 2858,
      "בשנה": 2859,
      "##וניברס": 2860,
      "##וכנית": 2861,
      "צ'": 2862,
      "בקרב": 2863,
      "השר": 2864,
      "מרו": 2865,
      "ומס": 2866,
      "גבוהה": 2867,
      "שגם": 2868,
      "למח": 2869,
      "שיה": 2870,
      "##בעים": 2871,
      "##מפ": 2872,
      "ליד": 2873,
      "משה": 2874,
      "סוף": 2875,
      "צד": 2876,
      "##וכן": 2877,
      "##at": 2878,
      "הבח": 2879,
      "##וכה": 2880,
      "הבא": 2881,
      "##וכר": 2882,
      "מאד": 2883,
      "לאור": 2884,
      "##נח": 2885,
      "##דון": 2886,
      "##וים": 2887,
      "##ic": 2888,
      "חופ": 2889,
      "##שיבות": 2890,
      "נוספת": 2891,
      "בסוף": 2892,
      "זוג": 2893,
      "שול": 2894,
      "com": 2895,
      "והש": 2896,
      "##כום": 2897,
      "אחרות": 2898,
      "##נלא": 2899,
      "בנושא": 2900,
      "חיו": 2901,
      "מים": 2902,
      "בשם": 2903,
      "##ויים": 2904,
      "במק": 2905,
      "##רבה": 2906,
      "תיק": 2907,
      "חברה": 2908,
      "לומר": 2909,
      "רבה": 2910,
      "הסרט": 2911,
      "כיצד": 2912,
      "השנייה": 2913,
      "##נאים": 2914,
      "בהת": 2915,
      "מוח": 2916,
      "החש": 2917,
      "לעבוד": 2918,
      "מיליא": 2919,
      "##ופט": 2920,
      "היתר": 2921,
      "##סם": 2922,
      "להק": 2923,
      "לבר": 2924,
      "ני": 2925,
      "ירי": 2926,
      "ידע": 2927,
      "שלושה": 2928,
      "##פיה": 2929,
      "בשביל": 2930,
      "##בירה": 2931,
      "חיי": 2932,
      "##טיס": 2933,
      "50": 2934,
      "דיו": 2935,
      "כלי": 2936,
      "##וסף": 2937,
      "והח": 2938,
      "##סון": 2939,
      "##רגע": 2940,
      "פעמים": 2941,
      "המער": 2942,
      "משק": 2943,
      "##זי": 2944,
      "שאנחנו": 2945,
      "חוז": 2946,
      "ירוש": 2947,
      "##על": 2948,
      "הקבוצה": 2949,
      "##שיב": 2950,
      "מעור": 2951,
      "סרט": 2952,
      "ירושלים": 2953,
      "##סור": 2954,
      "##טיח": 2955,
      "עצמה": 2956,
      "עובדים": 2957,
      "נכנס": 2958,
      "##כולת": 2959,
      "תמ": 2960,
      "והה": 2961,
      "חוות": 2962,
      "##יבית": 2963,
      "##רפת": 2964,
      "דא": 2965,
      "יר": 2966,
      "הער": 2967,
      "להש": 2968,
      "##he": 2969,
      "ההס": 2970,
      "האד": 2971,
      "##ולת": 2972,
      "הכנסת": 2973,
      "##קבלו": 2974,
      "תג": 2975,
      "100": 2976,
      "כאלה": 2977,
      "##זים": 2978,
      "סג": 2979,
      "חינם": 2980,
      "זכ": 2981,
      "##וריה": 2982,
      "שיי": 2983,
      "##ידו": 2984,
      "לטע": 2985,
      "מפני": 2986,
      "בשבוע": 2987,
      "##מונות": 2988,
      "קיב": 2989,
      "הרע": 2990,
      "צה": 2991,
      "מסוי": 2992,
      "##ווים": 2993,
      "טיפול": 2994,
      "טוע": 2995,
      "##צית": 2996,
      "##is": 2997,
      "אמנם": 2998,
      "תפקיד": 2999,
      "מספיק": 3000,
      "עליה": 3001,
      "היד": 3002,
      "##טון": 3003,
      "נמ": 3004,
      "ההג": 3005,
      "כע": 3006,
      "##כלית": 3007,
      "קיבל": 3008,
      "וכך": 3009,
      "##ותם": 3010,
      "המקום": 3011,
      "ואין": 3012,
      "האיש": 3013,
      "מיו": 3014,
      "זהו": 3015,
      "##תים": 3016,
      "הסת": 3017,
      "השפ": 3018,
      "מכו": 3019,
      "##בוק": 3020,
      "יהיו": 3021,
      "פרט": 3022,
      "##הליך": 3023,
      "והס": 3024,
      "##דן": 3025,
      "עולם": 3026,
      "##פג": 3027,
      "חדשים": 3028,
      "תוכלו": 3029,
      "##וויר": 3030,
      "תוש": 3031,
      "לקחת": 3032,
      "##ומו": 3033,
      "ולע": 3034,
      "##שתי": 3035,
      "למי": 3036,
      "להח": 3037,
      "שמא": 3038,
      "##יאה": 3039,
      "##כלי": 3040,
      "הרא": 3041,
      "קלי": 3042,
      "##רוך": 3043,
      "המוס": 3044,
      "##ובעת": 3045,
      "##לחמה": 3046,
      "##וקת": 3047,
      "##לוויזיה": 3048,
      "שעל": 3049,
      "בשוק": 3050,
      "##כח": 3051,
      "במרכז": 3052,
      "שקלים": 3053,
      "וט": 3054,
      "##חרים": 3055,
      "##חרונה": 3056,
      "שיק": 3057,
      "##פני": 3058,
      "המוד": 3059,
      "הקור": 3060,
      "לשם": 3061,
      "##ובר": 3062,
      "##זל": 3063,
      "ואי": 3064,
      "מיליארד": 3065,
      "24": 3066,
      "##\"ש": 3067,
      "שהיו": 3068,
      "עובד": 3069,
      "ימי": 3070,
      "תהליך": 3071,
      "חר": 3072,
      "כעת": 3073,
      "נקודות": 3074,
      "##מצא": 3075,
      "ילד": 3076,
      "לילה": 3077,
      "##יתים": 3078,
      "##שע": 3079,
      "תלו": 3080,
      "##סוף": 3081,
      "מגיע": 3082,
      "##ניסה": 3083,
      "הצע": 3084,
      "##ומיים": 3085,
      "עליהם": 3086,
      "מוב": 3087,
      "##בן": 3088,
      "##ייה": 3089,
      "##נויים": 3090,
      "סמ": 3091,
      "האופ": 3092,
      "##פילו": 3093,
      "דוד": 3094,
      "בהחלט": 3095,
      "##דרש": 3096,
      "מבין": 3097,
      "בבי": 3098,
      "##חון": 3099,
      "נתניהו": 3100,
      "מיני": 3101,
      "לפת": 3102,
      "המכ": 3103,
      "השמ": 3104,
      "מקור": 3105,
      "האל": 3106,
      "##סר": 3107,
      "המוצ": 3108,
      "ובא": 3109,
      "כלפי": 3110,
      "מו": 3111,
      "משי": 3112,
      "שהע": 3113,
      "שיל": 3114,
      "re": 3115,
      "העובדה": 3116,
      "מחדש": 3117,
      "שבת": 3118,
      "הרצ": 3119,
      "לצורך": 3120,
      "כדאי": 3121,
      "מות": 3122,
      "##בול": 3123,
      "קצ": 3124,
      "חק": 3125,
      "##יצוני": 3126,
      "ללמוד": 3127,
      "המשת": 3128,
      "בתל": 3129,
      "##קביל": 3130,
      "הלק": 3131,
      "##טא": 3132,
      "המוש": 3133,
      "ציבור": 3134,
      "יודעים": 3135,
      "ערך": 3136,
      "עניין": 3137,
      "##מני": 3138,
      "##יפוש": 3139,
      "##ונת": 3140,
      "##שום": 3141,
      "##יסטור": 3142,
      "לבחור": 3143,
      "להז": 3144,
      "##נדר": 3145,
      "ליצור": 3146,
      "נר": 3147,
      "##יגה": 3148,
      "לקראת": 3149,
      "##מידים": 3150,
      "באותו": 3151,
      "שהמ": 3152,
      "ראשו": 3153,
      "יצא": 3154,
      "רואה": 3155,
      "והם": 3156,
      "##לץ": 3157,
      "אכן": 3158,
      "שונה": 3159,
      "להשתמש": 3160,
      "שינוי": 3161,
      "##יינו": 3162,
      "ביו": 3163,
      "דוג": 3164,
      "לנס": 3165,
      "בזה": 3166,
      "##as": 3167,
      "מאשר": 3168,
      "##יכון": 3169,
      "מבחינת": 3170,
      "השירות": 3171,
      "בשלב": 3172,
      "המשפחה": 3173,
      "טל": 3174,
      "##יץ": 3175,
      "##סל": 3176,
      "##נצ": 3177,
      "ניה": 3178,
      "במידה": 3179,
      "##ישור": 3180,
      "אצ": 3181,
      "החינוך": 3182,
      "##מודד": 3183,
      "ובכל": 3184,
      "##ואל": 3185,
      "##שייה": 3186,
      "למד": 3187,
      "21": 3188,
      "רשת": 3189,
      "חדשה": 3190,
      "ושי": 3191,
      "בדר": 3192,
      "##ואי": 3193,
      "זק": 3194,
      "תיא": 3195,
      "כוכ": 3196,
      "בבר": 3197,
      "##_1": 3198,
      "אליה": 3199,
      "האחרונים": 3200,
      "##עבר": 3201,
      "נור": 3202,
      "##קשה": 3203,
      "תת": 3204,
      "אותן": 3205,
      "הלו": 3206,
      "##לך": 3207,
      "##מיה": 3208,
      "ניק": 3209,
      "##פא": 3210,
      "שט": 3211,
      "ערב": 3212,
      "החז": 3213,
      "198": 3214,
      "##מנה": 3215,
      "באותה": 3216,
      "הרכב": 3217,
      "משפחת": 3218,
      "כאילו": 3219,
      "40": 3220,
      "להביא": 3221,
      "##וסים": 3222,
      "יפה": 3223,
      "לימוד": 3224,
      "##כך": 3225,
      "דומה": 3226,
      "ידוע": 3227,
      "בהן": 3228,
      "התש": 3229,
      "ביחס": 3230,
      "##נגר": 3231,
      "התובע": 3232,
      "##רוס": 3233,
      "דה": 3234,
      "##ופול": 3235,
      "שיר": 3236,
      "הישראלית": 3237,
      "##וגל": 3238,
      "##it": 3239,
      "הצל": 3240,
      "##מינים": 3241,
      "##בלה": 3242,
      "האיר": 3243,
      "##ינת": 3244,
      "צריכה": 3245,
      "סל": 3246,
      "##מץ": 3247,
      "ויו": 3248,
      "מיק": 3249,
      "נחש": 3250,
      "נוע": 3251,
      "בירושלים": 3252,
      "כנראה": 3253,
      "##בנה": 3254,
      "ושל": 3255,
      "יק": 3256,
      "##יפות": 3257,
      "##פשרות": 3258,
      "אזרח": 3259,
      "##ביש": 3260,
      "שו": 3261,
      "הביטחון": 3262,
      "בגיל": 3263,
      "עושים": 3264,
      "לצאת": 3265,
      "סביב": 3266,
      "לישראל": 3267,
      "הטבע": 3268,
      "שהח": 3269,
      "##פרד": 3270,
      "##פוי": 3271,
      "והן": 3272,
      "##\"ה": 3273,
      "זכויות": 3274,
      "להתח": 3275,
      "##גם": 3276,
      "מהר": 3277,
      "##טיין": 3278,
      "המצב": 3279,
      "##תף": 3280,
      "##יעו": 3281,
      "##ופא": 3282,
      "##משים": 3283,
      "מספק": 3284,
      "פא": 3285,
      "שאתם": 3286,
      "החדשה": 3287,
      "עצמם": 3288,
      "ליה": 3289,
      "##נתיים": 3290,
      "##פתחות": 3291,
      "חושב": 3292,
      "מנהל": 3293,
      "##בלות": 3294,
      "##בקש": 3295,
      "לעולם": 3296,
      "רכב": 3297,
      "וכי": 3298,
      "כדור": 3299,
      "##חם": 3300,
      "hotel": 3301,
      "הגוף": 3302,
      "פנים": 3303,
      "##הילה": 3304,
      "##מיכה": 3305,
      "חת": 3306,
      "חיל": 3307,
      "הטוב": 3308,
      "שאתה": 3309,
      "אחוז": 3310,
      "##ds": 3311,
      "##וגר": 3312,
      "##יוס": 3313,
      "לשמור": 3314,
      "##ריז": 3315,
      "הטי": 3316,
      "##יצור": 3317,
      "הבל": 3318,
      "שנע": 3319,
      "הגבוה": 3320,
      "איזה": 3321,
      "להתק": 3322,
      "סיפ": 3323,
      "המר": 3324,
      "##ou": 3325,
      "חברי": 3326,
      "עי": 3327,
      "הפרו": 3328,
      "החולים": 3329,
      "מהס": 3330,
      "##ומרים": 3331,
      "משנה": 3332,
      "בהמשך": 3333,
      "##יונים": 3334,
      "הנס": 3335,
      "##שתו": 3336,
      "##מונים": 3337,
      "##le": 3338,
      "##ראו": 3339,
      "צוות": 3340,
      "פרופ": 3341,
      "##שונה": 3342,
      "תוכנית": 3343,
      "##יעות": 3344,
      "מכך": 3345,
      "היש": 3346,
      "הצדדים": 3347,
      "לידי": 3348,
      "מראש": 3349,
      "##כולם": 3350,
      "להסת": 3351,
      "in": 3352,
      "העונה": 3353,
      "ממנה": 3354,
      "##ודל": 3355,
      "המקצוע": 3356,
      "מאות": 3357,
      "להמשיך": 3358,
      "ורק": 3359,
      "חייב": 3360,
      "ונו": 3361,
      "##ידת": 3362,
      "ראו": 3363,
      "כאמור": 3364,
      "הוצ": 3365,
      "##מיות": 3366,
      "סיפור": 3367,
      "למקום": 3368,
      "שעבר": 3369,
      "##יור": 3370,
      "22": 3371,
      "##פתי": 3372,
      "מהע": 3373,
      "שד": 3374,
      "הפול": 3375,
      "במא": 3376,
      "##כני": 3377,
      "חמי": 3378,
      "##ניח": 3379,
      "מכיוון": 3380,
      "מגוון": 3381,
      "עצמי": 3382,
      "ייש": 3383,
      "רמת": 3384,
      "היטב": 3385,
      "##נויות": 3386,
      "שלום": 3387,
      "##ושר": 3388,
      "אישי": 3389,
      "##בש": 3390,
      "##יבורי": 3391,
      "##ראות": 3392,
      "##יסט": 3393,
      "##מאות": 3394,
      "##מניה": 3395,
      "##שיג": 3396,
      "קצר": 3397,
      "לבע": 3398,
      "##רכו": 3399,
      "##וויה": 3400,
      "הסכ": 3401,
      "יחסית": 3402,
      "התפ": 3403,
      "מאת": 3404,
      "##שויות": 3405,
      "סימ": 3406,
      "##ברג": 3407,
      "רפוא": 3408,
      "התג": 3409,
      "האר": 3410,
      "##וספת": 3411,
      "הוב": 3412,
      "הגדולה": 3413,
      "משל": 3414,
      "חג": 3415,
      "##סות": 3416,
      "הקד": 3417,
      "שיצ": 3418,
      "התורה": 3419,
      "אתר": 3420,
      "##טרי": 3421,
      "תופ": 3422,
      "חדשות": 3423,
      "שבהם": 3424,
      "פיר": 3425,
      "##\"ם": 3426,
      "##כונים": 3427,
      "מחש": 3428,
      "##רכי": 3429,
      "##פן": 3430,
      "כשא": 3431,
      "בינו": 3432,
      "##ושת": 3433,
      "197": 3434,
      "לכת": 3435,
      "קיים": 3436,
      "האתר": 3437,
      "ביי": 3438,
      "##ורר": 3439,
      "שעה": 3440,
      "אפשרות": 3441,
      "##פרט": 3442,
      "נט": 3443,
      "ע\"י": 3444,
      "נוספות": 3445,
      "ואפילו": 3446,
      "the": 3447,
      "שז": 3448,
      "##ריקה": 3449,
      "נז": 3450,
      "##לוטין": 3451,
      "בחברה": 3452,
      "הערב": 3453,
      "ארג": 3454,
      "מהא": 3455,
      "אומרת": 3456,
      "##יכנס": 3457,
      "##פיים": 3458,
      "##מוקר": 3459,
      "עשרות": 3460,
      "בחלק": 3461,
      "לחלוטין": 3462,
      "##וסק": 3463,
      "בגין": 3464,
      "מבלי": 3465,
      "שות": 3466,
      "עקב": 3467,
      "בימים": 3468,
      "##רגיה": 3469,
      "##יינים": 3470,
      "קבוצת": 3471,
      "הרכ": 3472,
      "##re": 3473,
      "הוכ": 3474,
      "מדינת": 3475,
      "##ליף": 3476,
      "מהש": 3477,
      "194": 3478,
      "במצב": 3479,
      "##נסת": 3480,
      "##נסים": 3481,
      "00": 3482,
      "הזוג": 3483,
      "נעשה": 3484,
      "מקר": 3485,
      "מחז": 3486,
      "##ניינים": 3487,
      "##סיק": 3488,
      "לדוג": 3489,
      "נבחר": 3490,
      "##תיק": 3491,
      "גדולים": 3492,
      "ים": 3493,
      "ומח": 3494,
      "##זרה": 3495,
      "ירו": 3496,
      "טי": 3497,
      "##פרים": 3498,
      "במלון": 3499,
      "וכו": 3500,
      "ניסיון": 3501,
      "נשמ": 3502,
      "החי": 3503,
      "עק": 3504,
      "שמח": 3505,
      "עומד": 3506,
      "##סקי": 3507,
      "התכ": 3508,
      "##ורם": 3509,
      "בעצם": 3510,
      "מלון": 3511,
      "משות": 3512,
      "ייח": 3513,
      "לקוחות": 3514,
      "מפל": 3515,
      "ולי": 3516,
      "ההחלט": 3517,
      "בתחילת": 3518,
      "הבריאות": 3519,
      "בסופו": 3520,
      "מוט": 3521,
      "##בצע": 3522,
      "במשחק": 3523,
      "מהת": 3524,
      "אכ": 3525,
      "הקול": 3526,
      "תנו": 3527,
      "שאם": 3528,
      "##ושי": 3529,
      "##חורי": 3530,
      "מלונות": 3531,
      "##שבון": 3532,
      "והפ": 3533,
      "שניתן": 3534,
      "לעבור": 3535,
      "והצ": 3536,
      "ייע": 3537,
      "שיכול": 3538,
      "##יכוי": 3539,
      "הטיפול": 3540,
      "בעזרת": 3541,
      "בעניין": 3542,
      "שאינו": 3543,
      "בניגוד": 3544,
      "המים": 3545,
      "##ביות": 3546,
      "לוק": 3547,
      "##ליטה": 3548,
      "רגע": 3549,
      "משא": 3550,
      "##שתה": 3551,
      "מישהו": 3552,
      "ביד": 3553,
      "##יסה": 3554,
      "חוסר": 3555,
      "##וזה": 3556,
      "##חרי": 3557,
      "שהא": 3558,
      "##יתכן": 3559,
      "ברחבי": 3560,
      "##ייע": 3561,
      "עלה": 3562,
      "צו": 3563,
      "ויצ": 3564,
      "##ישת": 3565,
      "##תייחס": 3566,
      "החק": 3567,
      "##צלחה": 3568,
      "סר": 3569,
      "התנה": 3570,
      "העבר": 3571,
      "האור": 3572,
      "##מדה": 3573,
      "##יתון": 3574,
      "מדוע": 3575,
      "##צעים": 3576,
      "##ועלים": 3577,
      "##מויות": 3578,
      "##ורף": 3579,
      "##יוד": 3580,
      "כמות": 3581,
      "זר": 3582,
      "ומק": 3583,
      "מחוץ": 3584,
      "לרוב": 3585,
      "השחק": 3586,
      "יהודים": 3587,
      "גבי": 3588,
      "לעמוד": 3589,
      "אוו": 3590,
      "הטר": 3591,
      "אק": 3592,
      "למנוע": 3593,
      "וזאת": 3594,
      "להא": 3595,
      "בזכות": 3596,
      "##נף": 3597,
      "##רגיש": 3598,
      "העליון": 3599,
      "יוש": 3600,
      "חצי": 3601,
      "בחודש": 3602,
      "הצה": 3603,
      "תצ": 3604,
      "המידע": 3605,
      "##\"ג": 3606,
      "עוז": 3607,
      "אירוע": 3608,
      "רי": 3609,
      "אמרה": 3610,
      "##מורה": 3611,
      "קא": 3612,
      "##ליחה": 3613,
      "##דמנות": 3614,
      "##בעון": 3615,
      "##בתי": 3616,
      "ביטוח": 3617,
      "במצ": 3618,
      "שיא": 3619,
      "מערכות": 3620,
      "צל": 3621,
      "הילד": 3622,
      "שבא": 3623,
      "ברק": 3624,
      "##מוע": 3625,
      "יהודי": 3626,
      "##סטר": 3627,
      "##פקד": 3628,
      "לגמרי": 3629,
      "עת": 3630,
      "הוג": 3631,
      "##נין": 3632,
      "גז": 3633,
      "##el": 3634,
      "ולאחר": 3635,
      "היינו": 3636,
      "##מלי": 3637,
      "##וגרים": 3638,
      "##tm": 3639,
      "שירותי": 3640,
      "שכבר": 3641,
      "##\"ן": 3642,
      "רואים": 3643,
      "בוד": 3644,
      "##מידה": 3645,
      "##פית": 3646,
      "##אורה": 3647,
      "השלישי": 3648,
      "מהח": 3649,
      "ד\"ר": 3650,
      "פוליט": 3651,
      "לשעבר": 3652,
      "היהודי": 3653,
      "##מנית": 3654,
      "##לקת": 3655,
      "לשלם": 3656,
      "ענק": 3657,
      "מונ": 3658,
      "מכש": 3659,
      "מתחת": 3660,
      "בעיה": 3661,
      "ומש": 3662,
      "ובין": 3663,
      "##ומד": 3664,
      "האג": 3665,
      "העובדים": 3666,
      "תרבות": 3667,
      "התקשורת": 3668,
      "הפעם": 3669,
      "##כנת": 3670,
      "זכות": 3671,
      "המוז": 3672,
      "##אק": 3673,
      "קבוע": 3674,
      "משמעותי": 3675,
      "##אשם": 3676,
      "בול": 3677,
      "##ימה": 3678,
      "ברכ": 3679,
      "##ונו": 3680,
      "הסכם": 3681,
      "ולמ": 3682,
      "ביצוע": 3683,
      "##גישה": 3684,
      "##אם": 3685,
      "טור": 3686,
      "שמש": 3687,
      "הים": 3688,
      "כות": 3689,
      "חרי": 3690,
      "##ידול": 3691,
      "##ro": 3692,
      "ללי": 3693,
      "##ובד": 3694,
      "בפועל": 3695,
      "אלפי": 3696,
      "23": 3697,
      "בלו": 3698,
      "נמו": 3699,
      "קד": 3700,
      "שבר": 3701,
      "##ac": 3702,
      "עשה": 3703,
      "196": 3704,
      "מכבי": 3705,
      "השימוש": 3706,
      "אישור": 3707,
      "##חושה": 3708,
      "##דבר": 3709,
      "משפחה": 3710,
      "ללכת": 3711,
      "החברות": 3712,
      "##יסטוריה": 3713,
      "##יתונ": 3714,
      "היסט": 3715,
      "##בס": 3716,
      "בעיני": 3717,
      "פסק": 3718,
      "ויר": 3719,
      "##war": 3720,
      "הצבא": 3721,
      "##כנולוגיה": 3722,
      "העם": 3723,
      "מצא": 3724,
      "##וכים": 3725,
      "יורק": 3726,
      "שכר": 3727,
      "##מחה": 3728,
      "הגיעו": 3729,
      "כהן": 3730,
      "אותך": 3731,
      "שרו": 3732,
      "הקשר": 3733,
      "לאחרונה": 3734,
      "נושא": 3735,
      "טובים": 3736,
      "המאה": 3737,
      "היצ": 3738,
      "הכר": 3739,
      "##ינות": 3740,
      "מלחמת": 3741,
      "ביניהם": 3742,
      "רשות": 3743,
      "מסע": 3744,
      "##ונט": 3745,
      "לחזור": 3746,
      "60": 3747,
      "השונים": 3748,
      "זוה": 3749,
      "ישנם": 3750,
      "המשי": 3751,
      "שיפ": 3752,
      "לוי": 3753,
      "שהצ": 3754,
      "האוכל": 3755,
      "בארה\"ב": 3756,
      "הכת": 3757,
      "למעלה": 3758,
      "חדר": 3759,
      "##ניהול": 3760,
      "##פוס": 3761,
      "##ימון": 3762,
      "##גוע": 3763,
      "חודש": 3764,
      "##ילום": 3765,
      "הפועל": 3766,
      "האנשים": 3767,
      "הפנים": 3768,
      "##לן": 3769,
      "מבקרים": 3770,
      "##נש": 3771,
      "שיהיה": 3772,
      "מאוחר": 3773,
      "ועם": 3774,
      "הבעיה": 3775,
      "מומלץ": 3776,
      "סעיף": 3777,
      "##מתי": 3778,
      "להתמודד": 3779,
      "##ירופה": 3780,
      "##חתי": 3781,
      "פרק": 3782,
      "לשחק": 3783,
      "מקרה": 3784,
      "הוק": 3785,
      "קש": 3786,
      "נציג": 3787,
      "ככה": 3788,
      "יז": 3789,
      "##פעל": 3790,
      "כתוצאה": 3791,
      "קבע": 3792,
      "##ץ'": 3793,
      "לפעמים": 3794,
      "##ייסבוק": 3795,
      "כיוון": 3796,
      "חיפה": 3797,
      "חוץ": 3798,
      "שהס": 3799,
      "היחס": 3800,
      "המשטרה": 3801,
      "ואילו": 3802,
      "##ייט": 3803,
      "מסוים": 3804,
      "##ישים": 3805,
      "בספר": 3806,
      "להשיג": 3807,
      "##ריה": 3808,
      "##אס": 3809,
      "יהודה": 3810,
      "לבן": 3811,
      "הסט": 3812,
      "##דק": 3813,
      "ליו": 3814,
      "##il": 3815,
      "סיפר": 3816,
      "רקע": 3817,
      "שצריך": 3818,
      "אזור": 3819,
      "##לטון": 3820,
      "רחב": 3821,
      "הינו": 3822,
      "לילות": 3823,
      "##ורמים": 3824,
      "האמת": 3825,
      "השאלה": 3826,
      "##מעות": 3827,
      "תי": 3828,
      "למען": 3829,
      "ההצ": 3830,
      "##ערך": 3831,
      "מנכ\"ל": 3832,
      "##פרסם": 3833,
      "##ומיות": 3834,
      "האוצר": 3835,
      "צבע": 3836,
      "##זית": 3837,
      "יו\"ר": 3838,
      "##ol": 3839,
      "##\"ס": 3840,
      "השכ": 3841,
      "גול": 3842,
      "אמריק": 3843,
      "##ברר": 3844,
      "עב": 3845,
      "וכמ": 3846,
      "##20": 3847,
      "בהק": 3848,
      "נב": 3849,
      "הולך": 3850,
      "יכולת": 3851,
      "##ion": 3852,
      "##לתי": 3853,
      "##יפים": 3854,
      "לשנות": 3855,
      "לראשונה": 3856,
      "אתכם": 3857,
      "וחצי": 3858,
      "כוחות": 3859,
      "מהה": 3860,
      "לאי": 3861,
      "עיצוב": 3862,
      "כזו": 3863,
      "הוועדה": 3864,
      "אול": 3865,
      "##ing": 3866,
      "יוצא": 3867,
      "ניו": 3868,
      "ועדת": 3869,
      "בסך": 3870,
      "##דיים": 3871,
      "הקרי": 3872,
      "ולק": 3873,
      "להעביר": 3874,
      "שמה": 3875,
      "נזק": 3876,
      "ישראלי": 3877,
      "עו\"ד": 3878,
      "##ערב": 3879,
      "לתח": 3880,
      "לחוק": 3881,
      "סב": 3882,
      "##טרף": 3883,
      "הוע": 3884,
      "גורם": 3885,
      "משמעותית": 3886,
      "##מינו": 3887,
      "הקוד": 3888,
      "לילדים": 3889,
      "מדינות": 3890,
      "מקצועי": 3891,
      "##רוע": 3892,
      "##דיו": 3893,
      "כפ": 3894,
      "##ארק": 3895,
      "יעקב": 3896,
      "ניהול": 3897,
      "##יימים": 3898,
      "##ופית": 3899,
      "עסקים": 3900,
      "אוט": 3901,
      "להיש": 3902,
      "##כתה": 3903,
      "בסרט": 3904,
      "תז": 3905,
      "##וסטר": 3906,
      "##זון": 3907,
      "בחר": 3908,
      "בור": 3909,
      "##ידום": 3910,
      "מלב": 3911,
      "##לווה": 3912,
      "קטנה": 3913,
      "לוח": 3914,
      "מדו": 3915,
      "לפנות": 3916,
      "פיצ": 3917,
      "הפרי": 3918,
      "##יאון": 3919,
      "חוב": 3920,
      "לבדוק": 3921,
      "פיק": 3922,
      "מאחר": 3923,
      "אישית": 3924,
      "האנו": 3925,
      "הגל": 3926,
      "##וטים": 3927,
      "##דרי": 3928,
      "האינטרנט": 3929,
      "תקופה": 3930,
      "האירוע": 3931,
      "##am": 3932,
      "##וין": 3933,
      "##יטי": 3934,
      "##ידן": 3935,
      "ריש": 3936,
      "##חייב": 3937,
      "השוק": 3938,
      "התל": 3939,
      "צה\"ל": 3940,
      "איל": 3941,
      "##ולוגיה": 3942,
      "80": 3943,
      "היהודים": 3944,
      "##wards": 3945,
      "ברשת": 3946,
      "במר": 3947,
      "##ינוי": 3948,
      "##ואו": 3949,
      "תס": 3950,
      "כנגד": 3951,
      "האוויר": 3952,
      "##מדת": 3953,
      "שהי": 3954,
      "החבר": 3955,
      "יג": 3956,
      "קטנים": 3957,
      "בטי": 3958,
      "בדבר": 3959,
      "הביטוח": 3960,
      "ביר": 3961,
      "##לוש": 3962,
      "העיק": 3963,
      "קרוב": 3964,
      "הרוח": 3965,
      "##לאות": 3966,
      "תומ": 3967,
      "##מום": 3968,
      "##יימת": 3969,
      "לקרוא": 3970,
      "נמצאים": 3971,
      "לחשוב": 3972,
      "ובת": 3973,
      "##וזי": 3974,
      "בתקופה": 3975,
      "##כתי": 3976,
      "הצורך": 3977,
      "עלינו": 3978,
      "ארי": 3979,
      "rewards": 3980,
      "במקביל": 3981,
      "רוס": 3982,
      "מעצ": 3983,
      "##מרו": 3984,
      "בעיות": 3985,
      "##וגה": 3986,
      "##סוק": 3987,
      "##און": 3988,
      "##נגלית": 3989,
      "ומצ": 3990,
      "##עתו": 3991,
      "2012": 3992,
      "##הים": 3993,
      "הפלסטי": 3994,
      "ספורט": 3995,
      "שומ": 3996,
      "במוע": 3997,
      "##ופל": 3998,
      "comtm": 3999,
      "מתאים": 4000,
      "תורה": 4001,
      "##פך": 4002,
      "ממשלת": 4003,
      "מדינה": 4004,
      "ארגון": 4005,
      "##בעות": 4006,
      "##סקה": 4007,
      "השו": 4008,
      "וקבלו": 4009,
      "שאפשר": 4010,
      "הסיפור": 4011,
      "יצחק": 4012,
      "##חריות": 4013,
      "מעוני": 4014,
      "המלחמה": 4015,
      "##יף": 4016,
      "##מדו": 4017,
      "לרכוש": 4018,
      "##יך": 4019,
      "עשוי": 4020,
      "##נל": 4021,
      "יוכל": 4022,
      "שאר": 4023,
      "הכס": 4024,
      "שרי": 4025,
      "##מנט": 4026,
      "המנה": 4027,
      "חשבון": 4028,
      "ניכ": 4029,
      "##ועלת": 4030,
      "ברמה": 4031,
      "##עון": 4032,
      "הראשונים": 4033,
      "##לקה": 4034,
      "ולח": 4035,
      "ממשי": 4036,
      "להפוך": 4037,
      "##מדים": 4038,
      "ביל": 4039,
      "2013": 4040,
      "##ישות": 4041,
      "##ואות": 4042,
      "##פיין": 4043,
      "##שיית": 4044,
      "ראה": 4045,
      "המערכת": 4046,
      "המון": 4047,
      "פרטי": 4048,
      "##חית": 4049,
      "לגרום": 4050,
      "שמדובר": 4051,
      "לציין": 4052,
      "##ודנטים": 4053,
      "לספק": 4054,
      "אומרים": 4055,
      "לטובת": 4056,
      "קורה": 4057,
      "לעזור": 4058,
      "ברגע": 4059,
      "ממה": 4060,
      "חכ": 4061,
      "##ודאי": 4062,
      "הנוכ": 4063,
      "##רוני": 4064,
      "##ודעה": 4065,
      "המשק": 4066,
      "והג": 4067,
      "##ציפ": 4068,
      "פק": 4069,
      "##סו": 4070,
      "להחז": 4071,
      "החר": 4072,
      "הרשות": 4073,
      "##גרות": 4074,
      "##צברו": 4075,
      "לדברי": 4076,
      "##גיעו": 4077,
      "##שמה": 4078,
      "הסיבה": 4079,
      "נמוך": 4080,
      "כז": 4081,
      "העול": 4082,
      "להיכנס": 4083,
      "בשר": 4084,
      "שהה": 4085,
      "שלמה": 4086,
      "##ו\"ל": 4087,
      "מלאה": 4088,
      "##ירייה": 4089,
      "חברים": 4090,
      "ביחד": 4091,
      "להר": 4092,
      "הנא": 4093,
      "יוסף": 4094,
      "הפני": 4095,
      "##גרים": 4096,
      "נצ": 4097,
      "##קם": 4098,
      "מפור": 4099,
      "שמס": 4100,
      "##נתו": 4101,
      "נוכ": 4102,
      "##יבוש": 4103,
      "השם": 4104,
      "2008": 4105,
      "מעולם": 4106,
      "##קסט": 4107,
      "במקרים": 4108,
      "להור": 4109,
      "המופ": 4110,
      "שאלה": 4111,
      "לשל": 4112,
      "הנפ": 4113,
      "גורמים": 4114,
      "וני": 4115,
      "במערכת": 4116,
      "יתר": 4117,
      "##רוכה": 4118,
      "לאתר": 4119,
      "##וניות": 4120,
      "2014": 4121,
      "קיימת": 4122,
      "לעיתים": 4123,
      "למדי": 4124,
      "##ורית": 4125,
      "ובש": 4126,
      "הקמת": 4127,
      "אירופה": 4128,
      "בטוח": 4129,
      "כבוד": 4130,
      "##שון": 4131,
      "הפך": 4132,
      "במשרד": 4133,
      "##ותרת": 4134,
      "רומ": 4135,
      "מנסה": 4136,
      "הפרס": 4137,
      "קרא": 4138,
      "##כרה": 4139,
      "קיו": 4140,
      "שאינם": 4141,
      "בריאות": 4142,
      "##ונן": 4143,
      "קוד": 4144,
      "מטעם": 4145,
      "תנאי": 4146,
      "כולו": 4147,
      "לפעול": 4148,
      "המוב": 4149,
      "מהווה": 4150,
      "זכה": 4151,
      "מבחינה": 4152,
      "##טרון": 4153,
      "והק": 4154,
      "##50": 4155,
      "יכולות": 4156,
      "ואמר": 4157,
      "חמש": 4158,
      "סק": 4159,
      "hotels": 4160,
      "##טן": 4161,
      "מכת": 4162,
      "##ואלי": 4163,
      "הקו": 4164,
      "עורך": 4165,
      "ביטוי": 4166,
      "90": 4167,
      "נולד": 4168,
      "מפע": 4169,
      "לקנות": 4170,
      "הממו": 4171,
      "ב'": 4172,
      "##וקס": 4173,
      "בתור": 4174,
      "ללק": 4175,
      "בכדי": 4176,
      "ארה\"ב": 4177,
      "בנוגע": 4178,
      "2011": 4179,
      "##גובה": 4180,
      "70": 4181,
      "קבלת": 4182,
      "סוכ": 4183,
      "התביעה": 4184,
      "לאומי": 4185,
      "יי": 4186,
      "##טיות": 4187,
      "מרח": 4188,
      "ששי": 4189,
      "##פואה": 4190,
      "אוב": 4191,
      "דרי": 4192,
      "##דיק": 4193,
      "##כשיר": 4194,
      "סול": 4195,
      "להשק": 4196,
      "ויל": 4197,
      "##רחש": 4198,
      "הבאה": 4199,
      "מראה": 4200,
      "##ניית": 4201,
      "מחקר": 4202,
      "##פלגה": 4203,
      "חפ": 4204,
      "##פייה": 4205,
      "ומכ": 4206,
      "##ברהם": 4207,
      "##גוון": 4208,
      "##וקי": 4209,
      "הבינלא": 4210,
      "חזק": 4211,
      "ההשק": 4212,
      "##ביעות": 4213,
      "מתא": 4214,
      "התוכנית": 4215,
      "שמצ": 4216,
      "##מכים": 4217,
      "מקבל": 4218,
      "קרה": 4219,
      "ארבע": 4220,
      "במדינה": 4221,
      "##לוג": 4222,
      "צבא": 4223,
      "החלטה": 4224,
      "לבנות": 4225,
      "מצוי": 4226,
      "אמרו": 4227,
      "ההחלטה": 4228,
      "##ודיים": 4229,
      "##גב": 4230,
      "##מרים": 4231,
      "נרא": 4232,
      "באינ": 4233,
      "ארצות": 4234,
      "העניין": 4235,
      "ונס": 4236,
      "להוציא": 4237,
      "מבוס": 4238,
      "ברצ": 4239,
      "##חרר": 4240,
      "אפש": 4241,
      "באוניברס": 4242,
      "##יקטים": 4243,
      "##ומדים": 4244,
      "וכו'": 4245,
      "והר": 4246,
      "##לויות": 4247,
      "ואל": 4248,
      "דירה": 4249,
      "שאת": 4250,
      "בשטח": 4251,
      "גן": 4252,
      "בלא": 4253,
      "##דוד": 4254,
      "##זב": 4255,
      "ההורים": 4256,
      "יפ": 4257,
      "##מב": 4258,
      "מרבית": 4259,
      "##וקף": 4260,
      "##אלית": 4261,
      "ייתכן": 4262,
      "500": 4263,
      "סא": 4264,
      "rewardsצברו": 4265,
      "##מאס": 4266,
      "פיל": 4267,
      "יצר": 4268,
      "לעבר": 4269,
      "לנק": 4270,
      "2010": 4271,
      "היחידה": 4272,
      "בסדר": 4273,
      "עבודות": 4274,
      "##יסוק": 4275,
      "##שימת": 4276,
      "גוף": 4277,
      "##ורו": 4278,
      "המפ": 4279,
      "מסר": 4280,
      "הנשיא": 4281,
      "לאפשר": 4282,
      "##דע": 4283,
      "##יצה": 4284,
      "פוט": 4285,
      "איתו": 4286,
      "בבע": 4287,
      "טרא": 4288,
      "26": 4289,
      "ולש": 4290,
      "למת": 4291,
      "עבד": 4292,
      "במהירות": 4293,
      "##23": 4294,
      "לעבודה": 4295,
      "תוצאות": 4296,
      "מגיעים": 4297,
      "מזרח": 4298,
      "##מיחה": 4299,
      "ויותר": 4300,
      "שיד": 4301,
      "##נדי": 4302,
      "בגר": 4303,
      "2007": 4304,
      "ארוך": 4305,
      "לעתים": 4306,
      "הבחירות": 4307,
      "קמ": 4308,
      "היחיד": 4309,
      "הוסיף": 4310,
      "ליצ": 4311,
      "כשהוא": 4312,
      "##יקת": 4313,
      "בחיים": 4314,
      "התרבות": 4315,
      "קבוצה": 4316,
      "התייחס": 4317,
      "עול": 4318,
      "תב": 4319,
      "פתח": 4320,
      "לדבריו": 4321,
      "##מוס": 4322,
      "##פטמבר": 4323,
      "ואולי": 4324,
      "לכאורה": 4325,
      "##לייה": 4326,
      "##מאי": 4327,
      "##אג": 4328,
      "מדה": 4329,
      "##ביעת": 4330,
      "##גנון": 4331,
      "חשיבות": 4332,
      "מוצרים": 4333,
      "ז'": 4334,
      "שנתיים": 4335,
      "ארץ": 4336,
      "##ed": 4337,
      "28": 4338,
      "##נכ\"ל": 4339,
      "##סיכול": 4340,
      "##יקו": 4341,
      "אמור": 4342,
      "##נקים": 4343,
      "הסי": 4344,
      "##ריכים": 4345,
      "##יתו": 4346,
      "בשנות": 4347,
      "2017": 4348,
      "שגר": 4349,
      "להתע": 4350,
      "##דמות": 4351,
      "##כנה": 4352,
      "המציאות": 4353,
      "27": 4354,
      "##תית": 4355,
      "פוג": 4356,
      "מתאי": 4357,
      "האנ": 4358,
      "להגיד": 4359,
      "האס": 4360,
      "בתע": 4361,
      "ומי": 4362,
      "עץ": 4363,
      "##סיכולוג": 4364,
      "##ביים": 4365,
      "מאחורי": 4366,
      "התחת": 4367,
      "גרי": 4368,
      "ובס": 4369,
      "##לין": 4370,
      "ההר": 4371,
      "נשיא": 4372,
      "קומ": 4373,
      "החלו": 4374,
      "##ריכה": 4375,
      "האזרח": 4376,
      "בצד": 4377,
      "##טג": 4378,
      "##באי": 4379,
      "##טיים": 4380,
      "לחץ": 4381,
      "בפע": 4382,
      "מתכו": 4383,
      "שיעור": 4384,
      "נשא": 4385,
      "2016": 4386,
      "ראשי": 4387,
      "##us": 4388,
      "נתונים": 4389,
      "שטח": 4390,
      "בנס": 4391,
      "המחיר": 4392,
      "רווח": 4393,
      "סדר": 4394,
      "מדבר": 4395,
      "סביר": 4396,
      "לארץ": 4397,
      "המלא": 4398,
      "2009": 4399,
      "שער": 4400,
      "ארבעה": 4401,
      "מוצרי": 4402,
      "##חשוב": 4403,
      "חמ": 4404,
      "חזר": 4405,
      "קבוצות": 4406,
      "הגדולים": 4407,
      "הוש": 4408,
      "##בחן": 4409,
      "חזרה": 4410,
      "במג": 4411,
      "המחקר": 4412,
      "תשלום": 4413,
      "##טרק": 4414,
      "##כירה": 4415,
      "מציע": 4416,
      "בתוכ": 4417,
      "והיה": 4418,
      "נוצ": 4419,
      "נאל": 4420,
      "מתע": 4421,
      "באה": 4422,
      "להגד": 4423,
      "##ודו": 4424,
      "##ליחו": 4425,
      "לטי": 4426,
      "בעי": 4427,
      "##ובדים": 4428,
      "אחריות": 4429,
      "במת": 4430,
      "##וניים": 4431,
      "אהבה": 4432,
      "ראוי": 4433,
      "העי": 4434,
      "השאר": 4435,
      "למא": 4436,
      "##פשים": 4437,
      "האזור": 4438,
      "##וגוסט": 4439,
      "##ונד": 4440,
      "שאנו": 4441,
      "ביקורת": 4442,
      "חולים": 4443,
      "החלק": 4444,
      "בעלת": 4445,
      "מתחיל": 4446,
      "להד": 4447,
      "##סיה": 4448,
      "##ועים": 4449,
      "##פקת": 4450,
      "בתפקיד": 4451,
      "הפת": 4452,
      "##ושבים": 4453,
      "הבוקר": 4454,
      "חייבים": 4455,
      "בצפון": 4456,
      "עוצ": 4457,
      "המלך": 4458,
      "##סטית": 4459,
      "דני": 4460,
      "##שאים": 4461,
      "הבסיס": 4462,
      "סיר": 4463,
      "לתוך": 4464,
      "הנושא": 4465,
      "תחום": 4466,
      "צעירים": 4467,
      "##לושה": 4468,
      "##21": 4469,
      "במטרה": 4470,
      "סיי": 4471,
      "בהס": 4472,
      "נוה": 4473,
      "##תיחת": 4474,
      "##יוב": 4475,
      "פיתוח": 4476,
      "##נחה": 4477,
      "וו": 4478,
      "##נצי": 4479,
      "##ופעה": 4480,
      "##דיין": 4481,
      "##חוץ": 4482,
      "אמתיות": 4483,
      "הוס": 4484,
      "הינה": 4485,
      "החשמ": 4486,
      "משר": 4487,
      "תקשורת": 4488,
      "##נדון": 4489,
      "##וסייה": 4490,
      "##כוד": 4491,
      "2006": 4492,
      "##טרות": 4493,
      "הכדור": 4494,
      "עמד": 4495,
      "##לוקת": 4496,
      "בחשבון": 4497,
      "##ניו": 4498,
      "מקומות": 4499,
      "מבק": 4500,
      "התובעת": 4501,
      "##שן": 4502,
      "##ומם": 4503,
      "הפוליט": 4504,
      "סיבה": 4505,
      "##ואן": 4506,
      "##os": 4507,
      "בשני": 4508,
      "##ענה": 4509,
      "הכסף": 4510,
      "במשק": 4511,
      "האו": 4512,
      "##וקטו": 4513,
      "##מצאים": 4514,
      "דירות": 4515,
      "##ובעים": 4516,
      "שבין": 4517,
      "##רוג": 4518,
      "שעברה": 4519,
      "הפעילות": 4520,
      "עמ'": 4521,
      "שחר": 4522,
      "חייו": 4523,
      "מטע": 4524,
      "אליהם": 4525,
      "##זרים": 4526,
      "האלו": 4527,
      "הרבי": 4528,
      "ברמת": 4529,
      "משחקים": 4530,
      "שווה": 4531,
      "מזון": 4532,
      "יודעת": 4533,
      "חב": 4534,
      "##גישות": 4535,
      "יחסי": 4536,
      "##וקטובר": 4537,
      "##פקה": 4538,
      "##נסי": 4539,
      "##יטים": 4540,
      "##דש": 4541,
      "המור": 4542,
      "חסר": 4543,
      "ראי": 4544,
      "##כלו": 4545,
      "##טרס": 4546,
      "תמונות": 4547,
      "וול": 4548,
      "היהודית": 4549,
      "##ירתו": 4550,
      "##דימה": 4551,
      "אמת": 4552,
      "להתחיל": 4553,
      "תרג": 4554,
      "לחיות": 4555,
      "##\"פ": 4556,
      "להי": 4557,
      "תודה": 4558,
      "2005": 4559,
      "התנועה": 4560,
      "בבוקר": 4561,
      "בהר": 4562,
      "הממש": 4563,
      "##קף": 4564,
      "א'": 4565,
      "##קול": 4566,
      "##ילוב": 4567,
      "לספר": 4568,
      "סד": 4569,
      "##ונש": 4570,
      "שמי": 4571,
      "נתן": 4572,
      "האפשרות": 4573,
      "יוע": 4574,
      "אינט": 4575,
      "מתן": 4576,
      "##ליכים": 4577,
      "##גלה": 4578,
      "##בוצות": 4579,
      "מענה": 4580,
      "הצליח": 4581,
      "נפש": 4582,
      "היכולת": 4583,
      "##סיון": 4584,
      "##צעי": 4585,
      "מהן": 4586,
      "השופט": 4587,
      "ברוב": 4588,
      "שלהן": 4589,
      "כוכבים": 4590,
      "מפר": 4591,
      "שהן": 4592,
      "בינלא": 4593,
      "הגיעה": 4594,
      "הנע": 4595,
      "##ילית": 4596,
      "במספר": 4597,
      "##פוך": 4598,
      "החלה": 4599,
      "##יכרון": 4600,
      "##ידר": 4601,
      "טכנולוג": 4602,
      "דם": 4603,
      "##נשי": 4604,
      "שמונה": 4605,
      "פרסום": 4606,
      "##ch": 4607,
      "##ter": 4608,
      "יוכלו": 4609,
      "##חרת": 4610,
      "מחו": 4611,
      "##פח": 4612,
      "אברהם": 4613,
      "##מרת": 4614,
      "ובכך": 4615,
      "שישי": 4616,
      "##ריע": 4617,
      "2015": 4618,
      "מדיניות": 4619,
      "מאר": 4620,
      "מנג": 4621,
      "מורכ": 4622,
      "##טען": 4623,
      "קרן": 4624,
      "הנית": 4625,
      "##ופש": 4626,
      "בטר": 4627,
      "לרו": 4628,
      "חוד": 4629,
      "דמות": 4630,
      "##כונת": 4631,
      "גברים": 4632,
      "שלישי": 4633,
      "מבית": 4634,
      "ביצ": 4635,
      "##נטית": 4636,
      "הרפוא": 4637,
      "עתי": 4638,
      "רצון": 4639,
      "חומר": 4640,
      "שלב": 4641,
      "שהש": 4642,
      "באירופה": 4643,
      "סכום": 4644,
      "##וטה": 4645,
      "להן": 4646,
      "עני": 4647,
      "מעלה": 4648,
      "##ישוב": 4649,
      "המלון": 4650,
      "מעניין": 4651,
      "ולת": 4652,
      "##ia": 4653,
      "טבעי": 4654,
      "צי": 4655,
      "אוהב": 4656,
      "המוח": 4657,
      "##יונית": 4658,
      "מידי": 4659,
      "##id": 4660,
      "לטיפול": 4661,
      "35": 4662,
      "##יחוד": 4663,
      "מבע": 4664,
      "##נגדות": 4665,
      "מנהיג": 4666,
      "לחברה": 4667,
      "##ופאים": 4668,
      "וכמובן": 4669,
      "מאי": 4670,
      "##נוס": 4671,
      "פתרון": 4672,
      "ורו": 4673,
      "להלן": 4674,
      "##מסר": 4675,
      "##משת": 4676,
      "##פריל": 4677,
      "195": 4678,
      "האה": 4679,
      "תקופת": 4680,
      "מקבלים": 4681,
      "מיט": 4682,
      "הרשת": 4683,
      "##ot": 4684,
      "היס": 4685,
      "נדר": 4686,
      "הלילה": 4687,
      "פט": 4688,
      "נמצאת": 4689,
      "נקבע": 4690,
      "כרגע": 4691,
      "ולב": 4692,
      "הנראה": 4693,
      "##מתו": 4694,
      "ארוכה": 4695,
      "מעני": 4696,
      "##שוואה": 4697,
      "מבר": 4698,
      "מבט": 4699,
      "שאלות": 4700,
      "כחלק": 4701,
      "##ריט": 4702,
      "##סקים": 4703,
      "מין": 4704,
      "הנוכחי": 4705,
      "המזרח": 4706,
      "ובעיקר": 4707,
      "עלול": 4708,
      "למשפ": 4709,
      "השופ": 4710,
      "ברחוב": 4711,
      "הארגון": 4712,
      "##וטל": 4713,
      "האש": 4714,
      "אסור": 4715,
      "ליהנות": 4716,
      "מהפ": 4717,
      "איב": 4718,
      "פעולות": 4719,
      "להימ": 4720,
      "##חתה": 4721,
      "##ושות": 4722,
      "האת": 4723,
      "במחיר": 4724,
      "מיום": 4725,
      "לאנשים": 4726,
      "##ודד": 4727,
      "193": 4728,
      "ובו": 4729,
      "ירד": 4730,
      "המנו": 4731,
      "##נדה": 4732,
      "בחדר": 4733,
      "##יתם": 4734,
      "##וליטי": 4735,
      "##טרת": 4736,
      "קה": 4737,
      "להניח": 4738,
      "עשרה": 4739,
      "בקלות": 4740,
      "ליום": 4741,
      "##לתה": 4742,
      "##זורים": 4743,
      "שנק": 4744,
      "אירועים": 4745,
      "##יתוף": 4746,
      "המות": 4747,
      "מחי": 4748,
      "מלבד": 4749,
      "לקבוע": 4750,
      "##צעת": 4751,
      "##קטור": 4752,
      "פתא": 4753,
      "הקש": 4754,
      "המועצה": 4755,
      "##ועה": 4756,
      "באשר": 4757,
      "##וונה": 4758,
      "##רגל": 4759,
      "העתי": 4760,
      "לשים": 4761,
      "ראשית": 4762,
      "##מינה": 4763,
      "##יווי": 4764,
      "אודות": 4765,
      "##כרו": 4766,
      "המרכזי": 4767,
      "במדי": 4768,
      "הנאשם": 4769,
      "המיוחד": 4770,
      "אישה": 4771,
      "ספרים": 4772,
      "האב": 4773,
      "29": 4774,
      "המדי": 4775,
      "כלום": 4776,
      "שבועות": 4777,
      "העיקר": 4778,
      "צעיר": 4779,
      "החוץ": 4780,
      "בוקר": 4781,
      "האמריקאי": 4782,
      "##יבוץ": 4783,
      "##אלות": 4784,
      "##כלים": 4785,
      "וכד": 4786,
      "##לפון": 4787,
      "##ad": 4788,
      "לסייע": 4789,
      "2003": 4790,
      "לרבות": 4791,
      "ירידה": 4792,
      "לנסות": 4793,
      "בבח": 4794,
      "##וקות": 4795,
      "ריב": 4796,
      "##צם": 4797,
      "מגד": 4798,
      "##פסת": 4799,
      "רצי": 4800,
      "##כנו": 4801,
      "ציפ": 4802,
      "ולהת": 4803,
      "גדולות": 4804,
      "an": 4805,
      "לתפקיד": 4806,
      "הביתה": 4807,
      "##צמבר": 4808,
      "##צג": 4809,
      "##מיר": 4810,
      "ייצ": 4811,
      "##ויה": 4812,
      "אבא": 4813,
      "רגל": 4814,
      "היע": 4815,
      "קלא": 4816,
      "##דיקה": 4817,
      "##יונ": 4818,
      "##לאים": 4819,
      "##ליטים": 4820,
      "##ותי": 4821,
      "אמא": 4822,
      "ומב": 4823,
      "קונ": 4824,
      "הימים": 4825,
      "עובר": 4826,
      "חשמל": 4827,
      "תושבי": 4828,
      "הלאומי": 4829,
      "ש\"ח": 4830,
      "לפתוח": 4831,
      "ציון": 4832,
      "ושוב": 4833,
      "בבתי": 4834,
      "ימ": 4835,
      "ההז": 4836,
      "לעלות": 4837,
      "לחת": 4838,
      "שטר": 4839,
      "הגול": 4840,
      "עלייה": 4841,
      "זיה": 4842,
      "ובל": 4843,
      "##ילא": 4844,
      "בערב": 4845,
      "דלת": 4846,
      "גא": 4847,
      "##כנסות": 4848,
      "דיס": 4849,
      "הנח": 4850,
      "##יתן": 4851,
      "ובח": 4852,
      "טרי": 4853,
      "הגז": 4854,
      "שוא": 4855,
      "הסביבה": 4856,
      "##ay": 4857,
      "הקהל": 4858,
      "שיב": 4859,
      "שמות": 4860,
      "שיתוף": 4861,
      "נותן": 4862,
      "חט": 4863,
      "הזדמנות": 4864,
      "עתה": 4865,
      "קפ": 4866,
      "הנשים": 4867,
      "לשא": 4868,
      "צפוי": 4869,
      "הדיון": 4870,
      "אוויר": 4871,
      "הנתבעת": 4872,
      "##למת": 4873,
      "2004": 4874,
      "הטובה": 4875,
      "מניות": 4876,
      "דברי": 4877,
      "לאכול": 4878,
      "31": 4879,
      "הנוס": 4880,
      "להוסיף": 4881,
      "2002": 4882,
      "ואחר": 4883,
      "##וסקים": 4884,
      "נאמר": 4885,
      "##תפות": 4886,
      "קפה": 4887,
      "מרי": 4888,
      "למצב": 4889,
      "טען": 4890,
      "כולנו": 4891,
      "##מנויות": 4892,
      "ויי": 4893,
      "לכתוב": 4894,
      "בעלות": 4895,
      "המשרד": 4896,
      "פגיעה": 4897,
      "ניש": 4898,
      "ואולם": 4899,
      "##כרות": 4900,
      "משתמשים": 4901,
      "##כנית": 4902,
      "##סטיבל": 4903,
      "לאדם": 4904,
      "ויע": 4905,
      "הדעת": 4906,
      "לשמוע": 4907,
      "נחשב": 4908,
      "איפה": 4909,
      "התמ": 4910,
      "סע": 4911,
      "##ליפות": 4912,
      "המדינות": 4913,
      "##קורת": 4914,
      "עשר": 4915,
      "זוהי": 4916,
      "הכוח": 4917,
      "דרכים": 4918,
      "תד": 4919,
      "ויק": 4920,
      "ניתוח": 4921,
      "המוק": 4922,
      "##וצות": 4923,
      "העור": 4924,
      "##ירוג": 4925,
      "טעם": 4926,
      "שיט": 4927,
      "אמית": 4928,
      "##נסיה": 4929,
      "דג": 4930,
      "הציבורי": 4931,
      "##\"ט": 4932,
      "##ארט": 4933,
      "המשות": 4934,
      "לדוגמה": 4935,
      "##ורד": 4936,
      "##יווק": 4937,
      "##תפים": 4938,
      "המטרה": 4939,
      "נכתב": 4940,
      "מעשה": 4941,
      "##נז": 4942,
      "לבוא": 4943,
      "הבה": 4944,
      "גבר": 4945,
      "גישה": 4946,
      "דמי": 4947,
      "באמצע": 4948,
      "המיו": 4949,
      "שחקנים": 4950,
      "לעצמו": 4951,
      "והב": 4952,
      "##דיות": 4953,
      "##שהי": 4954,
      "חלב": 4955,
      "להיפ": 4956,
      "חינוך": 4957,
      "ההון": 4958,
      "אמיתי": 4959,
      "לחי": 4960,
      "למק": 4961,
      "לני": 4962,
      "מסוימים": 4963,
      "השיר": 4964,
      "שבמ": 4965,
      "להתא": 4966,
      "נפג": 4967,
      "##מודדות": 4968,
      "התעופה": 4969,
      "סוב": 4970,
      "##טיה": 4971,
      "אביו": 4972,
      "כפר": 4973,
      "##יקות": 4974,
      "2018": 4975,
      "עיני": 4976,
      "צרפת": 4977,
      "הצעת": 4978,
      "לשלב": 4979,
      "רו": 4980,
      "השונות": 4981,
      "מועד": 4982,
      "באינטרנט": 4983,
      "##ודר": 4984,
      "קלה": 4985,
      "##ילוי": 4986,
      "בפעם": 4987,
      "ישנה": 4988,
      "##מצאו": 4989,
      "ניג": 4990,
      "נוג": 4991,
      "הגנה": 4992,
      "סתם": 4993,
      "##שוט": 4994,
      "מדר": 4995,
      "טרם": 4996,
      "##יסת": 4997,
      "##פיל": 4998,
      "לבני": 4999,
      "##ביבת": 5000,
      "תלוי": 5001,
      "הקהילה": 5002,
      "הומ": 5003,
      "##יקף": 5004,
      "הקודם": 5005,
      "ויד": 5006,
      "שהופ": 5007,
      "הנתונים": 5008,
      "בעתיד": 5009,
      "התהליך": 5010,
      "מרכזי": 5011,
      "בתגובה": 5012,
      "מתייחס": 5013,
      "החליט": 5014,
      "נוח": 5015,
      "##פרו": 5016,
      "ורי": 5017,
      "להפס": 5018,
      "במאי": 5019,
      "אמנות": 5020,
      "רוז": 5021,
      "הדירה": 5022,
      "למשחק": 5023,
      "ואנחנו": 5024,
      "##תיחה": 5025,
      "הלימודים": 5026,
      "נכונה": 5027,
      "##לכה": 5028,
      "בדרום": 5029,
      "##חייה": 5030,
      "מוכן": 5031,
      "העת": 5032,
      "מרכ": 5033,
      "מוחלט": 5034,
      "ההגנה": 5035,
      "המשמעות": 5036,
      "קיר": 5037,
      "הלקוח": 5038,
      "לפגוע": 5039,
      "שינויים": 5040,
      "##מנת": 5041,
      "כשר": 5042,
      "בארצות": 5043,
      "הרש": 5044,
      "הקשור": 5045,
      "אתרים": 5046,
      "סופ": 5047,
      "מוקדם": 5048,
      "להיע": 5049,
      "##קן": 5050,
      "##פעיל": 5051,
      "שרק": 5052,
      "מיוחדת": 5053,
      "##\"ת": 5054,
      "st": 5055,
      "והד": 5056,
      "מסוימת": 5057,
      "מדברים": 5058,
      "קיימים": 5059,
      "חובה": 5060,
      "הרעיון": 5061,
      "##דיא": 5062,
      "##ur": 5063,
      "##כונית": 5064,
      "כבי": 5065,
      "##תיע": 5066,
      "##כרח": 5067,
      "ישראלים": 5068,
      "##ag": 5069,
      "##סית": 5070,
      "גופ": 5071,
      "##זרו": 5072,
      "אגב": 5073,
      "##יריית": 5074,
      "בפי": 5075,
      "פרופ'": 5076,
      "שור": 5077,
      "הפעולה": 5078,
      "כלים": 5079,
      "300": 5080,
      "תוכל": 5081,
      "ההסכם": 5082,
      "קיל": 5083,
      "ביטחון": 5084,
      "לגלות": 5085,
      "2000": 5086,
      "##ינן": 5087,
      "##יבו": 5088,
      "ברבעון": 5089,
      "אמרתי": 5090,
      "##צחון": 5091,
      "##מרה": 5092,
      "נותר": 5093,
      "להציג": 5094,
      "בתקופת": 5095,
      "##שטיין": 5096,
      "##ישון": 5097,
      "עונה": 5098,
      "באחד": 5099,
      "שחקן": 5100,
      "להכיר": 5101,
      "במד": 5102,
      "בתהליך": 5103,
      "בקרי": 5104,
      "להבטיח": 5105,
      "מעמד": 5106,
      "תואר": 5107,
      "חוזר": 5108,
      "##ורא": 5109,
      "מחירון": 5110,
      "אינן": 5111,
      "טענה": 5112,
      "לבחון": 5113,
      "##סקת": 5114,
      "##יתות": 5115,
      "##תיבה": 5116,
      "בשירות": 5117,
      "##ig": 5118,
      "##ולחן": 5119,
      "##לוונט": 5120,
      "עברו": 5121,
      "במקומות": 5122,
      "##מותה": 5123,
      "הצוות": 5124,
      "משפחות": 5125,
      "שבש": 5126,
      "##גרה": 5127,
      "##נוק": 5128,
      "##נציאל": 5129,
      "שתה": 5130,
      "ספרי": 5131,
      "מאיר": 5132,
      "הפרויקט": 5133,
      "##פיות": 5134,
      "לחלק": 5135,
      "לנת": 5136,
      "השניים": 5137,
      "##מכם": 5138,
      "##טחים": 5139,
      "שירותים": 5140,
      "##כרת": 5141,
      "##טול": 5142,
      "המשך": 5143,
      "45": 5144,
      "הון": 5145,
      "מקצועית": 5146,
      "השלום": 5147,
      "לרשות": 5148,
      "נשאר": 5149,
      "המוצר": 5150,
      "החול": 5151,
      "##ודא": 5152,
      "ישירות": 5153,
      "##פקט": 5154,
      "בכתב": 5155,
      "אפשרי": 5156,
      "אבן": 5157,
      "גמ": 5158,
      "מעין": 5159,
      "הנתבע": 5160,
      "מוצר": 5161,
      "המומ": 5162,
      "גלי": 5163,
      "אנגל": 5164,
      "##ורס": 5165,
      "בהרבה": 5166,
      "לקיים": 5167,
      "שיחק": 5168,
      "עובדי": 5169,
      "לכיוון": 5170,
      "לשר": 5171,
      "##ריס": 5172,
      "אפשרויות": 5173,
      "מבנה": 5174,
      "##ברואר": 5175,
      "ונת": 5176,
      "הנק": 5177,
      "בעבודה": 5178,
      "##נסות": 5179,
      "##יבוד": 5180,
      "##פוץ": 5181,
      "##אור": 5182,
      "##דית": 5183,
      "תשובה": 5184,
      "ראיתי": 5185,
      "הטובים": 5186,
      "ומתן": 5187,
      "ויה": 5188,
      "הגישה": 5189,
      "##ויין": 5190,
      "פתאום": 5191,
      "יצירת": 5192,
      "הנכון": 5193,
      "##יאת": 5194,
      "הוח": 5195,
      "##ידוש": 5196,
      "##בוצת": 5197,
      "ביה": 5198,
      "כיס": 5199,
      "בניו": 5200,
      "##שוף": 5201,
      "פרטים": 5202,
      "מבצע": 5203,
      "דח": 5204,
      "תמיכה": 5205,
      "ביקש": 5206,
      "לאחד": 5207,
      "להקים": 5208,
      "התיכון": 5209,
      "באנגלית": 5210,
      "of": 5211,
      "החת": 5212,
      "מאמין": 5213,
      "ר'": 5214,
      "הקרוב": 5215,
      "##מדות": 5216,
      "יקר": 5217,
      "##טין": 5218,
      "לייצר": 5219,
      "הגדולות": 5220,
      "מלה": 5221,
      "החשמל": 5222,
      "שמק": 5223,
      "תחומי": 5224,
      "##th": 5225,
      "##ילויות": 5226,
      "אט": 5227,
      "מחר": 5228,
      "לשימוש": 5229,
      "יקרה": 5230,
      "גרם": 5231,
      "מרגיש": 5232,
      "אינס": 5233,
      "הלקוחות": 5234,
      "טוען": 5235,
      "תמונה": 5236,
      "דמ": 5237,
      "פלא": 5238,
      "##יסוי": 5239,
      "איננו": 5240,
      "##גרש": 5241,
      "דן": 5242,
      "##פורמה": 5243,
      "##ליטו": 5244,
      "##דיש": 5245,
      "סוגי": 5246,
      "מקרים": 5247,
      "המפור": 5248,
      "##כמה": 5249,
      "##ודיות": 5250,
      "##נהג": 5251,
      "שנא": 5252,
      "מדע": 5253,
      "מהד": 5254,
      "##ביה": 5255,
      "דיווח": 5256,
      "הקפ": 5257,
      "##יפורים": 5258,
      "גוגל": 5259,
      "שלם": 5260,
      "כולה": 5261,
      "ראשונה": 5262,
      "##בחרת": 5263,
      "הכולל": 5264,
      "##זן": 5265,
      "משקל": 5266,
      "##iv": 5267,
      "##מחים": 5268,
      "אילו": 5269,
      "##פריה": 5270,
      "צר": 5271,
      "נשק": 5272,
      "##משו": 5273,
      "בשבת": 5274,
      "מכיר": 5275,
      "הפור": 5276,
      "בקול": 5277,
      "קדימה": 5278,
      "האפ": 5279,
      "הקרקע": 5280,
      "##תחיל": 5281,
      "המקומית": 5282,
      "ופר": 5283,
      "כוללת": 5284,
      "##גלים": 5285,
      "##ושה": 5286,
      "##אתה": 5287,
      "לזכור": 5288,
      "##תחלה": 5289,
      "לעניין": 5290,
      "בנות": 5291,
      "המוצרים": 5292,
      "##ענות": 5293,
      "ון": 5294,
      "העירייה": 5295,
      "לתי": 5296,
      "##רכב": 5297,
      "התיק": 5298,
      "##\"ז": 5299,
      "אלוהים": 5300,
      "כלשהו": 5301,
      "##קרב": 5302,
      "אקד": 5303,
      "נמוכה": 5304,
      "תוכן": 5305,
      "השחקנים": 5306,
      "להישאר": 5307,
      "##ווית": 5308,
      "בע\"מ": 5309,
      "כלכלית": 5310,
      "להט": 5311,
      "שהתק": 5312,
      "כאלו": 5313,
      "##חתם": 5314,
      "##מינות": 5315,
      "מיר": 5316,
      "מתקד": 5317,
      "##וגים": 5318,
      "לדי": 5319,
      "##ונם": 5320,
      "צילום": 5321,
      "##וביץ": 5322,
      "##יבוב": 5323,
      "##יימו": 5324,
      "קטנות": 5325,
      "שהייתה": 5326,
      "מהיר": 5327,
      "שהרי": 5328,
      "צעד": 5329,
      "סיום": 5330,
      "##גשתי": 5331,
      "עבודת": 5332,
      "##זות": 5333,
      "הסדר": 5334,
      "טובות": 5335,
      "חומרים": 5336,
      "פו": 5337,
      "##דיף": 5338,
      "נ'": 5339,
      "והנ": 5340,
      "החיפוש": 5341,
      "והכ": 5342,
      "כוס": 5343,
      "גבוהים": 5344,
      "תמורת": 5345,
      "לטפל": 5346,
      "2001": 5347,
      "נפת": 5348,
      "ברורה": 5349,
      "תכנית": 5350,
      "ליר": 5351,
      "לשני": 5352,
      "סיכוי": 5353,
      "מלחמה": 5354,
      "פרויקט": 5355,
      "השפעה": 5356,
      "##זת": 5357,
      "בפרו": 5358,
      "המבק": 5359,
      "הכלכלי": 5360,
      "הראשי": 5361,
      "ממלי": 5362,
      "##שיפה": 5363,
      "בקשה": 5364,
      "##זין": 5365,
      "##מוי": 5366,
      "##וגיות": 5367,
      "מאפשרת": 5368,
      "##ow": 5369,
      "בינואר": 5370,
      "האישי": 5371,
      "##עתם": 5372,
      "ההתק": 5373,
      "הלה": 5374,
      "##ent": 5375,
      "##חתו": 5376,
      "שרון": 5377,
      "בשעות": 5378,
      "##יקום": 5379,
      "לצפות": 5380,
      "ממצ": 5381,
      "חמישה": 5382,
      "הטלוויזיה": 5383,
      "סופר": 5384,
      "לעיר": 5385,
      "הזר": 5386,
      "הולדת": 5387,
      "נמסר": 5388,
      "##כולות": 5389,
      "שמן": 5390,
      "וכמה": 5391,
      "ממח": 5392,
      "אופן": 5393,
      "שינה": 5394,
      "שיח": 5395,
      "דול": 5396,
      "##\"ע": 5397,
      "ולס": 5398,
      "התוצאה": 5399,
      "##יתנו": 5400,
      "התקופה": 5401,
      "##ובדה": 5402,
      "היחסים": 5403,
      "הופך": 5404,
      "מחפשים": 5405,
      "לרי": 5406,
      "המניות": 5407,
      "בימי": 5408,
      "הדו": 5409,
      "תחרות": 5410,
      "##יסות": 5411,
      "אסטר": 5412,
      "עין": 5413,
      "##oo": 5414,
      "##וכנות": 5415,
      "##ענו": 5416,
      "##בודות": 5417,
      "##ביו": 5418,
      "אלב": 5419,
      "##וכיח": 5420,
      "ערוץ": 5421,
      "##ולדות": 5422,
      "עומדת": 5423,
      "##אללה": 5424,
      "##ופס": 5425,
      "חור": 5426,
      "הצעיר": 5427,
      "עזה": 5428,
      "האחרים": 5429,
      "לטענת": 5430,
      "למג": 5431,
      "האקד": 5432,
      "לעיל": 5433,
      "מכאן": 5434,
      "##לאה": 5435,
      "פרח": 5436,
      "אינטרנט": 5437,
      "פלסטי": 5438,
      "נקודת": 5439,
      "##צרת": 5440,
      "עצם": 5441,
      "##לחמת": 5442,
      "הפרק": 5443,
      "קרובות": 5444,
      "##עימה": 5445,
      "גרמניה": 5446,
      "תקציב": 5447,
      "עורכי": 5448,
      "##חשבה": 5449,
      "ליבר": 5450,
      "מכר": 5451,
      "פינ": 5452,
      "והמש": 5453,
      "משנת": 5454,
      "בלילה": 5455,
      "חשובה": 5456,
      "החדשות": 5457,
      "36": 5458,
      "הקל": 5459,
      "השב": 5460,
      "דיג": 5461,
      "תנועה": 5462,
      "המפלגה": 5463,
      "חדרים": 5464,
      "##יינה": 5465,
      "העש": 5466,
      "נו": 5467,
      "##שט": 5468,
      "##שאיר": 5469,
      "מצרים": 5470,
      "כותב": 5471,
      "##פנים": 5472,
      "בכו": 5473,
      "העברית": 5474,
      "##שאי": 5475,
      "עשויה": 5476,
      "שכול": 5477,
      "##רני": 5478,
      "##ננת": 5479,
      "למכור": 5480,
      "סין": 5481,
      "המסחר": 5482,
      "מבקש": 5483,
      "טענות": 5484,
      "##ננים": 5485,
      "צור": 5486,
      "עשויים": 5487,
      "ח\"כ": 5488,
      "ריק": 5489,
      "לחס": 5490,
      "המקרים": 5491,
      "ותי": 5492,
      "הסדרה": 5493,
      "##ולוגי": 5494,
      "בספטמבר": 5495,
      "מלך": 5496,
      "באור": 5497,
      "ההע": 5498,
      "נפר": 5499,
      "##עדה": 5500,
      "הסל": 5501,
      "##פיו": 5502,
      "##יינת": 5503,
      "##\"ק": 5504,
      "##פכה": 5505,
      "##טרך": 5506,
      "##לאי": 5507,
      "בערך": 5508,
      "בתש": 5509,
      "תיקון": 5510,
      "לקדם": 5511,
      "לחפש": 5512,
      "החלטות": 5513,
      "להעלות": 5514,
      "מחירים": 5515,
      "להשקיע": 5516,
      "רחוק": 5517,
      "##\"ץ": 5518,
      "##שפיע": 5519,
      "לקבלת": 5520,
      "הקב": 5521,
      "שבהן": 5522,
      "האישה": 5523,
      "סימן": 5524,
      "קי": 5525,
      "שפע": 5526,
      "כזאת": 5527,
      "הדור": 5528,
      "נוכל": 5529,
      "##ir": 5530,
      "האפשר": 5531,
      "##נינו": 5532,
      "##אשר": 5533,
      "שוו": 5534,
      "נשל": 5535,
      "עמוד": 5536,
      "יוני": 5537,
      "תור": 5538,
      "מצליח": 5539,
      "אוני": 5540,
      "עמוק": 5541,
      "שווי": 5542,
      "בחוק": 5543,
      "בקשר": 5544,
      "לצע": 5545,
      "הבלתי": 5546,
      "הרווח": 5547,
      "##זוב": 5548,
      "אמו": 5549,
      "רוכ": 5550,
      "זכתה": 5551,
      "שופ": 5552,
      "נעים": 5553,
      "הנוכח": 5554,
      "##נור": 5555,
      "##דיה": 5556,
      "יחידות": 5557,
      "##יעין": 5558,
      "##וצי": 5559,
      "##קיה": 5560,
      "חיצוני": 5561,
      "לזכות": 5562,
      "38": 5563,
      "להגיש": 5564,
      "##ובב": 5565,
      "נשמע": 5566,
      "##_2": 5567,
      "מיוחדים": 5568,
      "איתם": 5569,
      "בעצמו": 5570,
      "התב": 5571,
      "במט": 5572,
      "פתרונות": 5573,
      "מסך": 5574,
      "לאה": 5575,
      "אוטומ": 5576,
      "עומדים": 5577,
      "רמ": 5578,
      "שחור": 5579,
      "שליטה": 5580,
      "כלכלי": 5581,
      "משם": 5582,
      "33": 5583,
      "מסביר": 5584,
      "שאינה": 5585,
      "כשי": 5586,
      "וית": 5587,
      "בהשוואה": 5588,
      "שפת": 5589,
      "להרגיש": 5590,
      "התשובה": 5591,
      "##כוח": 5592,
      "##רוק": 5593,
      "ציוד": 5594,
      "ממשלה": 5595,
      "ושם": 5596,
      "##כרים": 5597,
      "המחירים": 5598,
      "הוצאות": 5599,
      "חזקה": 5600,
      "לאט": 5601,
      "##כישה": 5602,
      "בפרס": 5603,
      "##נסקי": 5604,
      "שאי": 5605,
      "פשוטה": 5606,
      "הבנקים": 5607,
      "ציין": 5608,
      "השטח": 5609,
      "מתוכ": 5610,
      "##כוז": 5611,
      "##תייש": 5612,
      "עמדה": 5613,
      "2019": 5614,
      "מכירים": 5615,
      "בחי": 5616,
      "ישיר": 5617,
      "##45": 5618,
      "הבול": 5619,
      "תוכניות": 5620,
      "##נטה": 5621,
      "##למות": 5622,
      "##נטר": 5623,
      "שזו": 5624,
      "אוהבים": 5625,
      "העסקה": 5626,
      "חוקי": 5627,
      "##איות": 5628,
      "מאל": 5629,
      "##ניון": 5630,
      "הפכה": 5631,
      "תקווה": 5632,
      "פעמיים": 5633,
      "מהי": 5634,
      "תחושת": 5635,
      "הספ": 5636,
      "##במבר": 5637,
      "שניים": 5638,
      "##גדל": 5639,
      "המאפשר": 5640,
      "הנוער": 5641,
      "לציון": 5642,
      "ביוני": 5643,
      "תשל": 5644,
      "##כנע": 5645,
      "##בנות": 5646,
      "עתיד": 5647,
      "המשפטי": 5648,
      "##וויות": 5649,
      "אצלנו": 5650,
      "להסביר": 5651,
      "קיבלו": 5652,
      "קהל": 5653,
      "##78": 5654,
      "פג": 5655,
      "לשירות": 5656,
      "אלקט": 5657,
      "תחילת": 5658,
      "##ובוס": 5659,
      "חשש": 5660,
      "פות": 5661,
      "מוכר": 5662,
      "בינתיים": 5663,
      "כשל": 5664,
      "פופול": 5665,
      "##והר": 5666,
      "##נדל": 5667,
      "נוצר": 5668,
      "##ואב": 5669,
      "גו": 5670,
      "בעני": 5671,
      "בגוף": 5672,
      "מהג": 5673,
      "וכת": 5674,
      "המי": 5675,
      "##לקט": 5676,
      "##נב": 5677,
      "##מוק": 5678,
      "##בעו": 5679,
      "##וזר": 5680,
      "וחלק": 5681,
      "לפתח": 5682,
      "מבינים": 5683,
      "לציבור": 5684,
      "##לאת": 5685,
      "איזו": 5686,
      "סיכון": 5687,
      "והנה": 5688,
      "רפואי": 5689,
      "##im": 5690,
      "צבי": 5691,
      "לנהל": 5692,
      "התנהגות": 5693,
      "אשתו": 5694,
      "אנג": 5695,
      "ישר": 5696,
      "##10": 5697,
      "השא": 5698,
      "שנפ": 5699,
      "##עש": 5700,
      "ביולי": 5701,
      "##תיבת": 5702,
      "ההבד": 5703,
      "##שנות": 5704,
      "##יתונאים": 5705,
      "דיון": 5706,
      "ניכר": 5707,
      "חושבים": 5708,
      "##\"ו": 5709,
      "לחל": 5710,
      "השמש": 5711,
      "##למים": 5712,
      "##חדות": 5713,
      "##ועד": 5714,
      "נקרא": 5715,
      "בתום": 5716,
      "תשומת": 5717,
      "השלטון": 5718,
      "עיקר": 5719,
      "ושה": 5720,
      "להגן": 5721,
      "להימנע": 5722,
      "##שתית": 5723,
      "היב": 5724,
      "ת\"א": 5725,
      "העד": 5726,
      "הבאים": 5727,
      "שילוב": 5728,
      "למשך": 5729,
      "להעניק": 5730,
      "##נץ": 5731,
      "התחיל": 5732,
      "בכמה": 5733,
      "##טחה": 5734,
      "התלמידים": 5735,
      "עלות": 5736,
      "בחו\"ל": 5737,
      "באת": 5738,
      "מקורות": 5739,
      "מוקד": 5740,
      "##שרו": 5741,
      "##לימות": 5742,
      "##לבום": 5743,
      "והי": 5744,
      "בתיק": 5745,
      "##בירות": 5746,
      "##קוב": 5747,
      "מתנה": 5748,
      "חמישי": 5749,
      "##טוב": 5750,
      "##וזים": 5751,
      "חיס": 5752,
      "ספציפ": 5753,
      "##כנן": 5754,
      "רפ": 5755,
      "החוב": 5756,
      "ומד": 5757,
      "העיקרי": 5758,
      "##אום": 5759,
      "השליטה": 5760,
      "שאף": 5761,
      "חברתית": 5762,
      "ונע": 5763,
      "תחושה": 5764,
      "##צועים": 5765,
      "ויא": 5766,
      "ההול": 5767,
      "לאר": 5768,
      "הבנייה": 5769,
      "##כירות": 5770,
      "##בורג": 5771,
      "הורים": 5772,
      "המוכ": 5773,
      "בחירה": 5774,
      "ממני": 5775,
      "##ויד": 5776,
      "##ליכי": 5777,
      "ממשיך": 5778,
      "ללקוחות": 5779,
      "נהרג": 5780,
      "32": 5781,
      "הוציא": 5782,
      "בחיי": 5783,
      "##נאה": 5784,
      "להתג": 5785,
      "המבקש": 5786,
      "נהג": 5787,
      "כספי": 5788,
      "חוזה": 5789,
      "ההיסטוריה": 5790,
      "##בלו": 5791,
      "##ra": 5792,
      "ומר": 5793,
      "דיא": 5794,
      "אלינו": 5795,
      "חייבת": 5796,
      "ולו": 5797,
      "##לחת": 5798,
      "בכיר": 5799,
      "מותר": 5800,
      "מתב": 5801,
      "##וער": 5802,
      "באוקטובר": 5803,
      "הית": 5804,
      "במל": 5805,
      "מציג": 5806,
      "בהקשר": 5807,
      "קוב": 5808,
      "בקבוצה": 5809,
      "ולצ": 5810,
      "פועל": 5811,
      "##כז": 5812,
      "וחס": 5813,
      "הכניסה": 5814,
      "שיווק": 5815,
      "##ודע": 5816,
      "דלק": 5817,
      "קיבלה": 5818,
      "המבנה": 5819,
      "##אני": 5820,
      "##בונות": 5821,
      "בגל": 5822,
      "לשפר": 5823,
      "##יונה": 5824,
      "##ליטות": 5825,
      "להרח": 5826,
      "הסביר": 5827,
      "מרת": 5828,
      "הולכים": 5829,
      "בשב": 5830,
      "קבל": 5831,
      "התפקיד": 5832,
      "לכולם": 5833,
      "באו": 5834,
      "ברשות": 5835,
      "החדשים": 5836,
      "המתק": 5837,
      "##רן": 5838,
      "החומר": 5839,
      "יסוד": 5840,
      "##כלת": 5841,
      "הודיע": 5842,
      "##מיני": 5843,
      "##זיל": 5844,
      "##רבית": 5845,
      "הצליחו": 5846,
      "המזון": 5847,
      "##ופלים": 5848,
      "כשמ": 5849,
      "נושאים": 5850,
      "הנפש": 5851,
      "יתק": 5852,
      "השקעות": 5853,
      "##ריד": 5854,
      "מהצ": 5855,
      "שהק": 5856,
      "לרגע": 5857,
      "##יכך": 5858,
      "הספורט": 5859,
      "##טוי": 5860,
      "שכתב": 5861,
      "##אוג": 5862,
      "בוט": 5863,
      "הסמ": 5864,
      "לשמש": 5865,
      "בשיעור": 5866,
      "שפור": 5867,
      "##רטים": 5868,
      "##ec": 5869,
      "הידי": 5870,
      "יין": 5871,
      "##וניה": 5872,
      "בחברת": 5873,
      "##רין": 5874,
      "יהודית": 5875,
      "לחיים": 5876,
      "להחזיר": 5877,
      "לשאול": 5878,
      "תמי": 5879,
      "מאחור": 5880,
      "אלכס": 5881,
      "נדמה": 5882,
      "ולג": 5883,
      "בשתי": 5884,
      "המרכזית": 5885,
      "לשבת": 5886,
      "צפ": 5887,
      "עלתה": 5888,
      "עיק": 5889,
      "לוותר": 5890,
      "ק\"מ": 5891,
      "אוניברס": 5892,
      "שטי": 5893,
      "שיטת": 5894,
      "בחיפה": 5895,
      "נול": 5896,
      "בראשית": 5897,
      "מהק": 5898,
      "בנייה": 5899,
      "בליגה": 5900,
      "חלקם": 5901,
      "אמצעי": 5902,
      "לפיכך": 5903,
      "##כנות": 5904,
      "פיג": 5905,
      "הוראות": 5906,
      "אמריקה": 5907,
      "ודי": 5908,
      "שימו": 5909,
      "400": 5910,
      "גיא": 5911,
      "מגנטים": 5912,
      "נרחב": 5913,
      "אדום": 5914,
      "##ומק": 5915,
      "##חוד": 5916,
      "##שיבת": 5917,
      "הדם": 5918,
      "לבקר": 5919,
      "באוניברסיטת": 5920,
      "##מקד": 5921,
      "מקווה": 5922,
      "קיום": 5923,
      "בנימין": 5924,
      "##דויות": 5925,
      "לאירועים": 5926,
      "מחירי": 5927,
      "##כנים": 5928,
      "פרטיים": 5929,
      "שאמר": 5930,
      "בנובמבר": 5931,
      "בחוץ": 5932,
      "##כנון": 5933,
      "ענ": 5934,
      "רופא": 5935,
      "פתוח": 5936,
      "תפק": 5937,
      "בהכרח": 5938,
      "משול": 5939,
      "אורי": 5940,
      "בפרט": 5941,
      "מסוגל": 5942,
      "בצה": 5943,
      "הכנסות": 5944,
      "##נקה": 5945,
      "מהלך": 5946,
      "##un": 5947,
      "בדומה": 5948,
      "במרחק": 5949,
      "אינטר": 5950,
      "שיער": 5951,
      "##יאלי": 5952,
      "שהיתה": 5953,
      "התפתחות": 5954,
      "##מונת": 5955,
      "##פלים": 5956,
      "##יקס": 5957,
      "מילים": 5958,
      "היקף": 5959,
      "##חינה": 5960,
      "נדרש": 5961,
      "מורכב": 5962,
      "##צרו": 5963,
      "הלאומית": 5964,
      "החיס": 5965,
      "שקיבל": 5966,
      "בתא": 5967,
      "##תיב": 5968,
      "הלכה": 5969,
      "שלפני": 5970,
      "##מצם": 5971,
      "לנצח": 5972,
      "הגבוהה": 5973,
      "##ולוגית": 5974,
      "חלקי": 5975,
      "גדל": 5976,
      "קוס": 5977,
      "ופע": 5978,
      "לקח": 5979,
      "וללא": 5980,
      "זהב": 5981,
      "##ation": 5982,
      "בהג": 5983,
      "בכפר": 5984,
      "הפק": 5985,
      "המדע": 5986,
      "##ולו": 5987,
      "##יפו": 5988,
      "רצה": 5989,
      "הנד": 5990,
      "טק": 5991,
      "פועלים": 5992,
      "לאל": 5993,
      "##כוון": 5994,
      "שרא": 5995,
      "רגיל": 5996,
      "שיותר": 5997,
      "הפרטי": 5998,
      "זע": 5999,
      "##ובלת": 6000,
      "להכין": 6001,
      "יצאו": 6002,
      "ואח": 6003,
      "ציבורית": 6004,
      "אוס": 6005,
      "להציע": 6006,
      "##ופיע": 6007,
      "להיר": 6008,
      "תביעה": 6009,
      "יחסים": 6010,
      "קוראים": 6011,
      "אנרגיה": 6012,
      "##סייע": 6013,
      "##סוקה": 6014,
      "קרקע": 6015,
      "ממס": 6016,
      "אבו": 6017,
      "##ריכת": 6018,
      "משתמש": 6019,
      "מזל": 6020,
      "##ולל": 6021,
      "##יתונות": 6022,
      "בהיקף": 6023,
      "הדמוקר": 6024,
      "ורא": 6025,
      "שמגיע": 6026,
      "ניצחון": 6027,
      "עברה": 6028,
      "מונה": 6029,
      "לעצור": 6030,
      "באוגוסט": 6031,
      "הבכ": 6032,
      "וקר": 6033,
      "שירים": 6034,
      "##עתה": 6035,
      "פלי": 6036,
      "לימודי": 6037,
      "גידול": 6038,
      "הליך": 6039,
      "דק": 6040,
      "היוע": 6041,
      "קצב": 6042,
      "השכר": 6043,
      "המקור": 6044,
      "הלח": 6045,
      "##ונג": 6046,
      "חיילים": 6047,
      "מגיעה": 6048,
      "מעולה": 6049,
      "לתל": 6050,
      "פתיחת": 6051,
      "מצוין": 6052,
      "גרו": 6053,
      "##רבות": 6054,
      "בכת": 6055,
      "בהע": 6056,
      "עדיף": 6057,
      "##נאות": 6058,
      "הרכבת": 6059,
      "דל": 6060,
      "קופ": 6061,
      "##ועדת": 6062,
      "הקשה": 6063,
      "להתאים": 6064,
      "##גיד": 6065,
      "החס": 6066,
      "דיגיט": 6067,
      "התמונה": 6068,
      "יוסי": 6069,
      "באפריל": 6070,
      "הקצ": 6071,
      "טראמפ": 6072,
      "דמוקר": 6073,
      "הבחירה": 6074,
      "##ובלי": 6075,
      "בחק": 6076,
      "האמריקאית": 6077,
      "שדה": 6078,
      "##עויות": 6079,
      "שוכ": 6080,
      "חושבת": 6081,
      "הציבורית": 6082,
      "הכלכלה": 6083,
      "##ילד": 6084,
      "##ננו": 6085,
      "כספים": 6086,
      "לזהות": 6087,
      "##יציה": 6088,
      "הרביעי": 6089,
      "##11": 6090,
      "ידו": 6091,
      "##מציה": 6092,
      "גובה": 6093,
      "לנשים": 6094,
      "הפופול": 6095,
      "איראן": 6096,
      "הודעה": 6097,
      "הפרסום": 6098,
      "מחשב": 6099,
      "תכנון": 6100,
      "בדצמבר": 6101,
      "גודל": 6102,
      "סבל": 6103,
      "גולד": 6104,
      "##ננה": 6105,
      "לביצוע": 6106,
      "הרצון": 6107,
      "הקטן": 6108,
      "##עין": 6109,
      "המחשב": 6110,
      "החדר": 6111,
      "דרום": 6112,
      "##מוני": 6113,
      "מדד": 6114,
      "בעד": 6115,
      "שניות": 6116,
      "נוער": 6117,
      "מידה": 6118,
      "שבס": 6119,
      "תחילה": 6120,
      "והז": 6121,
      "להתייחס": 6122,
      "עיריית": 6123,
      "הבנתי": 6124,
      "מבח": 6125,
      "בכוח": 6126,
      "באש": 6127,
      "ייצור": 6128,
      "קס": 6129,
      "##סטים": 6130,
      "המשיב": 6131,
      "עיסוק": 6132,
      "פחד": 6133,
      "##ומנים": 6134,
      "הפועלים": 6135,
      "כבד": 6136,
      "כתוב": 6137,
      "מסלול": 6138,
      "עלולה": 6139,
      "רכישת": 6140,
      "##לונה": 6141,
      "בסגנון": 6142,
      "מפקד": 6143,
      "מטרים": 6144,
      "בדיקה": 6145,
      "כרטיס": 6146,
      "בניית": 6147,
      "##פחה": 6148,
      "לבסוף": 6149,
      "התרג": 6150,
      "דיבר": 6151,
      "##שמית": 6152,
      "מציאות": 6153,
      "היי": 6154,
      "סדרת": 6155,
      "מביא": 6156,
      "האוט": 6157,
      "מוכנים": 6158,
      "סקר": 6159,
      "טלוויזיה": 6160,
      "וממ": 6161,
      "המשיך": 6162,
      "הצליחה": 6163,
      "זרים": 6164,
      "עמדת": 6165,
      "##כבי": 6166,
      "חופש": 6167,
      "##נהגות": 6168,
      "חיפוש": 6169,
      "למט": 6170,
      "לגר": 6171,
      "החמ": 6172,
      "הקיץ": 6173,
      "##יימות": 6174,
      "ווי": 6175,
      "##כלות": 6176,
      "##ark": 6177,
      "להזמין": 6178,
      "##ישית": 6179,
      "עובדת": 6180,
      "מזמן": 6181,
      "##דמה": 6182,
      "קורא": 6183,
      "אקס": 6184,
      "זוכ": 6185,
      "##ניהן": 6186,
      "ולפי": 6187,
      "##דיון": 6188,
      "הוצאת": 6189,
      "מאיתנו": 6190,
      "להוכיח": 6191,
      "אופי": 6192,
      "הראשונות": 6193,
      "המונ": 6194,
      "##ba": 6195,
      "קילומ": 6196,
      "##קעין": 6197,
      "רביעי": 6198,
      "עליכם": 6199,
      "בטח": 6200,
      "מנסים": 6201,
      "בראשות": 6202,
      "קרב": 6203,
      "איתן": 6204,
      "##וסקת": 6205,
      "יבוא": 6206,
      "השבת": 6207,
      "להוביל": 6208,
      "בטיחות": 6209,
      "תינו": 6210,
      "נתון": 6211,
      "הכללי": 6212,
      "הנדר": 6213,
      "יוז": 6214,
      "שהר": 6215,
      "שמב": 6216,
      "##נפ": 6217,
      "המילה": 6218,
      "##ap": 6219,
      "מוצא": 6220,
      "הדלת": 6221,
      "##פד": 6222,
      "חיפ": 6223,
      "כמי": 6224,
      "חברתי": 6225,
      "רוסיה": 6226,
      "ד'": 6227,
      "שמאל": 6228,
      "חוויה": 6229,
      "בפור": 6230,
      "והט": 6231,
      "מסחר": 6232,
      "##אטרון": 6233,
      "ברוך": 6234,
      "##מפרט": 6235,
      "בנה": 6236,
      "סמוך": 6237,
      "75": 6238,
      "##תיי": 6239,
      "מרק": 6240,
      "##וונות": 6241,
      "בוודאי": 6242,
      "##צעו": 6243,
      "בוצ": 6244,
      "חומרי": 6245,
      "לדעתי": 6246,
      "שקר": 6247,
      "באל": 6248,
      "שניהם": 6249,
      "כנסת": 6250,
      "הביא": 6251,
      "המחוזי": 6252,
      "הגמר": 6253,
      "##פונים": 6254,
      "אנטי": 6255,
      "לנה": 6256,
      "הנוכחית": 6257,
      "משמש": 6258,
      "הקודמת": 6259,
      "סבא": 6260,
      "הפכו": 6261,
      "איכותי": 6262,
      "חשבתי": 6263,
      "##רכן": 6264,
      "אפריקה": 6265,
      "פעיל": 6266,
      "החלטת": 6267,
      "##ג'": 6268,
      "##רווי": 6269,
      "בבקשה": 6270,
      "תוספת": 6271,
      "הספק": 6272,
      "שוט": 6273,
      "##לטה": 6274,
      "ומג": 6275,
      "מנות": 6276,
      "##געו": 6277,
      "הכנסה": 6278,
      "הודיעה": 6279,
      "הלאה": 6280,
      "##נגטון": 6281,
      "שמחה": 6282,
      "##כוה": 6283,
      "כושר": 6284,
      "##וגות": 6285,
      "##לקות": 6286,
      "התחרות": 6287,
      "לדוגמא": 6288,
      "##וכית": 6289,
      "איתי": 6290,
      "משותף": 6291,
      "שנייה": 6292,
      "##יקאים": 6293,
      "al": 6294,
      "בבחירות": 6295,
      "דופן": 6296,
      "תנועת": 6297,
      "##חוק": 6298,
      "משכ": 6299,
      "המעבר": 6300,
      "מבני": 6301,
      "ריי": 6302,
      "הכספים": 6303,
      "##יקל": 6304,
      "זכר": 6305,
      "44": 6306,
      "הבד": 6307,
      "תלמיד": 6308,
      "לפס": 6309,
      "בעונה": 6310,
      "מושג": 6311,
      "מרא": 6312,
      "##ורסה": 6313,
      "צדק": 6314,
      "משחקי": 6315,
      "34": 6316,
      "קורס": 6317,
      "##יבוי": 6318,
      "תרופות": 6319,
      "##חינת": 6320,
      "לחבר": 6321,
      "מחקרים": 6322,
      "מציעה": 6323,
      "מהו": 6324,
      "שוח": 6325,
      "והבי": 6326,
      "שהב": 6327,
      "עצמית": 6328,
      "מכירות": 6329,
      "אשת": 6330,
      "##פיד": 6331,
      "המקומי": 6332,
      "לתקן": 6333,
      "עלו": 6334,
      "במזרח": 6335,
      "בתוכנית": 6336,
      "##גרם": 6337,
      "להכניס": 6338,
      "למר": 6339,
      "קשות": 6340,
      "בנט": 6341,
      "ההשקעות": 6342,
      "##טיביות": 6343,
      "שימש": 6344,
      "ובני": 6345,
      "##חשבות": 6346,
      "##כסוך": 6347,
      "שיפור": 6348,
      "באירוע": 6349,
      "איי": 6350,
      "##שימות": 6351,
      "##ווירה": 6352,
      "ולד": 6353,
      "המתאי": 6354,
      "סיל": 6355,
      "יתרון": 6356,
      "מפתח": 6357,
      "שהגיע": 6358,
      "is": 6359,
      "הקרובים": 6360,
      "חיבור": 6361,
      "יוצר": 6362,
      "יפו": 6363,
      "עזרה": 6364,
      "מכתב": 6365,
      "##ברתית": 6366,
      "הלך": 6367,
      "שפיר": 6368,
      "להחליף": 6369,
      "שמעון": 6370,
      "##ביד": 6371,
      "##מוצע": 6372,
      "חתי": 6373,
      "לשון": 6374,
      "משני": 6375,
      "נוק": 6376,
      "החג": 6377,
      "בהצ": 6378,
      "##רנית": 6379,
      "שהג": 6380,
      "##וית": 6381,
      "החודש": 6382,
      "שלח": 6383,
      "##ניף": 6384,
      "לוודא": 6385,
      "הנכ": 6386,
      "בשיתוף": 6387,
      "##נברג": 6388,
      "חום": 6389,
      "סטר": 6390,
      "##פריט": 6391,
      "השינוי": 6392,
      "שמואל": 6393,
      "משפחתו": 6394,
      "##לנד": 6395,
      "במאה": 6396,
      "בכירים": 6397,
      "##שראי": 6398,
      "הבינלאומי": 6399,
      "קשור": 6400,
      "העיצוב": 6401,
      "קשים": 6402,
      "##ערה": 6403,
      "הרפואי": 6404,
      "##ופיה": 6405,
      "##ov": 6406,
      "מעלות": 6407,
      "הכח": 6408,
      "ונית": 6409,
      "##יימה": 6410,
      "מנהלת": 6411,
      "שולחן": 6412,
      "מגורים": 6413,
      "וזו": 6414,
      "##כרז": 6415,
      "השלישית": 6416,
      "צפויה": 6417,
      "##um": 6418,
      "חיות": 6419,
      "זוכה": 6420,
      "מתחילים": 6421,
      "##תפו": 6422,
      "ניסה": 6423,
      "חשובים": 6424,
      "הטור": 6425,
      "שקט": 6426,
      "להפסיק": 6427,
      "ספי": 6428,
      "הפיק": 6429,
      "הוז": 6430,
      "המיי": 6431,
      "##\"צ": 6432,
      "ההסת": 6433,
      "##ניקה": 6434,
      "זהה": 6435,
      "הכוונה": 6436,
      "הערבי": 6437,
      "יוצרים": 6438,
      "הצטר": 6439,
      "דעתו": 6440,
      "פצ": 6441,
      "##כלול": 6442,
      "לאו": 6443,
      "העסקים": 6444,
      "האמיתי": 6445,
      "##ופעות": 6446,
      "שהפ": 6447,
      "##וביץ'": 6448,
      "שערים": 6449,
      "האמנות": 6450,
      "##רגונים": 6451,
      "לבטל": 6452,
      "דרכו": 6453,
      "אפל": 6454,
      "דב": 6455,
      "##ושב": 6456,
      "מושלם": 6457,
      "מורה": 6458,
      "##יכום": 6459,
      "איתה": 6460,
      "ברג": 6461,
      "ממע": 6462,
      "טלפון": 6463,
      "סטי": 6464,
      "מלי": 6465,
      "ניר": 6466,
      "יוק": 6467,
      "לראש": 6468,
      "##כמים": 6469,
      "לפיה": 6470,
      "מחוז": 6471,
      "הצלחה": 6472,
      "במדינות": 6473,
      "##זיות": 6474,
      "##בדות": 6475,
      "ובנו": 6476,
      "חוס": 6477,
      "ציל": 6478,
      "##בדה": 6479,
      "##יפת": 6480,
      "הסיכון": 6481,
      "כאב": 6482,
      "##דושה": 6483,
      "##ul": 6484,
      "המשחקים": 6485,
      "בריא": 6486,
      "בנושאי": 6487,
      "הבריטי": 6488,
      "רעיון": 6489,
      "החקירה": 6490,
      "##פרה": 6491,
      "מועצת": 6492,
      "##מודי": 6493,
      "החוצה": 6494,
      "רה": 6495,
      "##ידית": 6496,
      "יימ": 6497,
      "##וונת": 6498,
      "48": 6499,
      "וכמו": 6500,
      "##נסט": 6501,
      "מותו": 6502,
      "מפת": 6503,
      "הנ\"ל": 6504,
      "##מב\"ם": 6505,
      "לבקש": 6506,
      "בקיץ": 6507,
      "##יקי": 6508,
      "טרור": 6509,
      "המוג": 6510,
      "##מידי": 6511,
      "לוקח": 6512,
      "הפג": 6513,
      "שהכ": 6514,
      "והיו": 6515,
      "לבח": 6516,
      "העברת": 6517,
      "פירות": 6518,
      "מרד": 6519,
      "משבר": 6520,
      "שלאחר": 6521,
      "טווח": 6522,
      "בדיקות": 6523,
      "סרטים": 6524,
      "מגר": 6525,
      "בסיום": 6526,
      "השקעה": 6527,
      "היות": 6528,
      "ישראלית": 6529,
      "למערכת": 6530,
      "מעמ": 6531,
      "נתוני": 6532,
      "הנדל": 6533,
      "חלקים": 6534,
      "##שפעה": 6535,
      "לשוק": 6536,
      "בדקה": 6537,
      "הדירות": 6538,
      "ברית": 6539,
      "מצווה": 6540,
      "##ובלים": 6541,
      "עג": 6542,
      "איסור": 6543,
      "##אווה": 6544,
      "התוכ": 6545,
      "מעוניינים": 6546,
      "הבין": 6547,
      "סח": 6548,
      "טוענים": 6549,
      "רד": 6550,
      "קובע": 6551,
      "הקומ": 6552,
      "מיכ": 6553,
      "לדאוג": 6554,
      "##וריות": 6555,
      "בטרם": 6556,
      "זי": 6557,
      "בקרוב": 6558,
      "האדמה": 6559,
      "קצרה": 6560,
      "##תות": 6561,
      "קרובים": 6562,
      "וכדומה": 6563,
      "טא": 6564,
      "בקו": 6565,
      "##ונטי": 6566,
      "רציתי": 6567,
      "רוק": 6568,
      "חייהם": 6569,
      "נורא": 6570,
      "##hotel": 6571,
      "שלושת": 6572,
      "יושב": 6573,
      "למלא": 6574,
      "הידע": 6575,
      "##ירוף": 6576,
      "##ריב": 6577,
      "בוג": 6578,
      "תום": 6579,
      "##פרת": 6580,
      "##קבלה": 6581,
      "הבקשה": 6582,
      "חם": 6583,
      "כדורגל": 6584,
      "בדיקת": 6585,
      "הכלים": 6586,
      "לקרי": 6587,
      "ותק": 6588,
      "החליטה": 6589,
      "הזכות": 6590,
      "אדרי": 6591,
      "טקס": 6592,
      "##ליחים": 6593,
      "במי": 6594,
      "עבורכם": 6595,
      "כני": 6596,
      "שהוצ": 6597,
      "שנמצא": 6598,
      "העובד": 6599,
      "##ואת": 6600,
      "נפרד": 6601,
      "##צרות": 6602,
      "ארוכות": 6603,
      "האמית": 6604,
      "האצ": 6605,
      "סגן": 6606,
      "אלון": 6607,
      "להוריד": 6608,
      "de": 6609,
      "חבל": 6610,
      "אדמה": 6611,
      "אוהבת": 6612,
      "רוט": 6613,
      "##ען": 6614,
      "למב": 6615,
      "ביע": 6616,
      "קרו": 6617,
      "##נהלות": 6618,
      "בפעילות": 6619,
      "##טחת": 6620,
      "אחות": 6621,
      "בנת": 6622,
      "פסיכולוג": 6623,
      "מכשיר": 6624,
      "##למה": 6625,
      "זהות": 6626,
      "החוף": 6627,
      "המשבר": 6628,
      "##ביעית": 6629,
      "ישנו": 6630,
      "בפברואר": 6631,
      "הממשל": 6632,
      "##est": 6633,
      "היכן": 6634,
      "להשפיע": 6635,
      "##נך": 6636,
      "לעצמי": 6637,
      "בתנאי": 6638,
      "##ינון": 6639,
      "השח": 6640,
      "ההד": 6641,
      "ארוחת": 6642,
      "הולכת": 6643,
      "150": 6644,
      "הצבאי": 6645,
      "נמש": 6646,
      "אטרק": 6647,
      "העולמי": 6648,
      "##ממה": 6649,
      "הפינ": 6650,
      "מהות": 6651,
      "אלימות": 6652,
      "##זמן": 6653,
      "התושבים": 6654,
      "ביש": 6655,
      "##מנטים": 6656,
      "##ידי": 6657,
      "שכת": 6658,
      "שבח": 6659,
      "##יצוי": 6660,
      "חופשי": 6661,
      "אחוזים": 6662,
      "החופ": 6663,
      "##רישות": 6664,
      "ייעוץ": 6665,
      "לפרו": 6666,
      "מדהים": 6667,
      "טיי": 6668,
      "##פעול": 6669,
      "##נטיות": 6670,
      "אמורה": 6671,
      "נסיעה": 6672,
      "37": 6673,
      "##כלל": 6674,
      "בעבור": 6675,
      "הדיו": 6676,
      "עוברים": 6677,
      "##מצים": 6678,
      "##פיינים": 6679,
      "הבן": 6680,
      "אייל": 6681,
      "בשום": 6682,
      "האחריות": 6683,
      "מוות": 6684,
      "מומחה": 6685,
      "הכלכלית": 6686,
      "פירוש": 6687,
      "שהוג": 6688,
      "נכסים": 6689,
      "ברכב": 6690,
      "איננה": 6691,
      "פאר": 6692,
      "קידום": 6693,
      "##וגיה": 6694,
      "##כליים": 6695,
      "למדינה": 6696,
      "שחי": 6697,
      "##נסו": 6698,
      "התוצאות": 6699,
      "נבחרת": 6700,
      "לדר": 6701,
      "התקציב": 6702,
      "##מצויין": 6703,
      "המאו": 6704,
      "לממש": 6705,
      "עצמא": 6706,
      "אחריו": 6707,
      "מחד": 6708,
      "מאמינים": 6709,
      "כלשהי": 6710,
      "##יסטים": 6711,
      "למעט": 6712,
      "עוסק": 6713,
      "בתים": 6714,
      "נטען": 6715,
      "בגובה": 6716,
      "ההור": 6717,
      "חכם": 6718,
      "בצבע": 6719,
      "מילה": 6720,
      "אנט": 6721,
      "and": 6722,
      "טה": 6723,
      "זוכר": 6724,
      "בהצלחה": 6725,
      "ולהע": 6726,
      "הכוחות": 6727,
      "לחברות": 6728,
      "לבל": 6729,
      "ביקור": 6730,
      "הטכנולוגיה": 6731,
      "הישראלים": 6732,
      "כרטי": 6733,
      "לשינוי": 6734,
      "##ואין": 6735,
      "##לטות": 6736,
      "המקורי": 6737,
      "סך": 6738,
      "##מירה": 6739,
      "בענף": 6740,
      "##ולט": 6741,
      "כיו": 6742,
      "אחראי": 6743,
      "החברים": 6744,
      "מאה": 6745,
      "מאו": 6746,
      "להראות": 6747,
      "לבעלי": 6748,
      "##נהיג": 6749,
      "יוצאת": 6750,
      "מטרה": 6751,
      "אזרחים": 6752,
      "הוות": 6753,
      "בנג": 6754,
      "##זציה": 6755,
      "ליב": 6756,
      "##se": 6757,
      "יוצאים": 6758,
      "לשלוח": 6759,
      "הסבר": 6760,
      "דורש": 6761,
      "##יצונית": 6762,
      "הצר": 6763,
      "התחבורה": 6764,
      "##צליה": 6765,
      "לפק": 6766,
      "אורח": 6767,
      "ידעתי": 6768,
      "##ולין": 6769,
      "מעוד": 6770,
      "מנוע": 6771,
      "לפרטים": 6772,
      "נתק": 6773,
      "במוס": 6774,
      "##מרט": 6775,
      "2020": 6776,
      "##and": 6777,
      "##עזר": 6778,
      "שהוק": 6779,
      "המלצות": 6780,
      "##בירים": 6781,
      "##מיו": 6782,
      "האירופי": 6783,
      "מימון": 6784,
      "צמוד": 6785,
      "טעות": 6786,
      "והכל": 6787,
      "נקר": 6788,
      "השפה": 6789,
      "מכירה": 6790,
      "##ניב": 6791,
      "שחלק": 6792,
      "ואיך": 6793,
      "האוניברס": 6794,
      "##ירום": 6795,
      "##בחון": 6796,
      "191": 6797,
      "האשראי": 6798,
      "חן": 6799,
      "מספקת": 6800,
      "לאת": 6801,
      "הנוגע": 6802,
      "ללב": 6803,
      "בנסיבות": 6804,
      "אשה": 6805,
      "##בון": 6806,
      "הקולנוע": 6807,
      "ליא": 6808,
      "רחוב": 6809,
      "##טט": 6810,
      "אמיתית": 6811,
      "##סן": 6812,
      "הות": 6813,
      "עיניים": 6814,
      "שיחה": 6815,
      "הקבוצות": 6816,
      "##ירור": 6817,
      "הפוט": 6818,
      "##רטיס": 6819,
      "##והה": 6820,
      "הליכוד": 6821,
      "מפלגת": 6822,
      "עולים": 6823,
      "##שתמש": 6824,
      "להגדיל": 6825,
      "סיוע": 6826,
      "בניין": 6827,
      "הכפר": 6828,
      "עמית": 6829,
      "##מטיקה": 6830,
      "תלמידים": 6831,
      "##נלי": 6832,
      "##אלת": 6833,
      "מפג": 6834,
      "##חדשות": 6835,
      "מיה": 6836,
      "כשאני": 6837,
      "##אבים": 6838,
      "להתי": 6839,
      "##יעת": 6840,
      "האמור": 6841,
      "הענק": 6842,
      "שלל": 6843,
      "##סקנה": 6844,
      "מוביל": 6845,
      "הליגה": 6846,
      "##ודיה": 6847,
      "##ip": 6848,
      "שיניים": 6849,
      "האח": 6850,
      "ועכשיו": 6851,
      "##חרה": 6852,
      "פרשת": 6853,
      "משותפת": 6854,
      "הקב\"ה": 6855,
      "סת": 6856,
      "פית": 6857,
      "##וזן": 6858,
      "עצמנו": 6859,
      "##כותי": 6860,
      "נדל": 6861,
      "בפרק": 6862,
      "העלייה": 6863,
      "##בך": 6864,
      "דף": 6865,
      "##כוהול": 6866,
      "שיס": 6867,
      "הקורונה": 6868,
      "##רית": 6869,
      "לדרך": 6870,
      "סכ": 6871,
      "ויט": 6872,
      "העיקרית": 6873,
      "דבריו": 6874,
      "פרא": 6875,
      "מטה": 6876,
      "עצום": 6877,
      "##יטוא": 6878,
      "לקהל": 6879,
      "##סיקה": 6880,
      "##שיו": 6881,
      "בטיפול": 6882,
      "##חתת": 6883,
      "הערבים": 6884,
      "ציבורי": 6885,
      "השירותים": 6886,
      "ובכלל": 6887,
      "שנש": 6888,
      "##גדים": 6889,
      "נוכח": 6890,
      "התנגדות": 6891,
      "לערוך": 6892,
      "רצוי": 6893,
      "##ערבות": 6894,
      "##מורת": 6895,
      "ויס": 6896,
      "נשי": 6897,
      "מאסר": 6898,
      "העתיד": 6899,
      "התה": 6900,
      "בחזרה": 6901,
      "מיליוני": 6902,
      "מ'": 6903,
      "האנרגיה": 6904,
      "##אט": 6905,
      "מספרת": 6906,
      "מהב": 6907,
      "דרכ": 6908,
      "המבוס": 6909,
      "שנראה": 6910,
      "ואחרי": 6911,
      "פוליטית": 6912,
      "הגיש": 6913,
      "בעברית": 6914,
      "בריט": 6915,
      "פנה": 6916,
      "##ארי": 6917,
      "השואה": 6918,
      "##30": 6919,
      "גבולות": 6920,
      "מהירה": 6921,
      "אבות": 6922,
      "פרץ": 6923,
      "נחל": 6924,
      "##ישורים": 6925,
      "##גיה": 6926,
      "היעד": 6927,
      "ישת": 6928,
      "מציעים": 6929,
      "##ut": 6930,
      "am": 6931,
      "ביטול": 6932,
      "##ודיו": 6933,
      "##oc": 6934,
      "##חשבים": 6935,
      "שפר": 6936,
      "חנויות": 6937,
      "השרון": 6938,
      "לממשלה": 6939,
      "כניסה": 6940,
      "ווא": 6941,
      "השידור": 6942,
      "האיס": 6943,
      "זול": 6944,
      "יגיע": 6945,
      "הציג": 6946,
      "מתמחה": 6947,
      "##ניר": 6948,
      "צפון": 6949,
      "מ\"ר": 6950,
      "מהבית": 6951,
      "בסעיף": 6952,
      "לעזוב": 6953,
      "לחדר": 6954,
      "##וצאת": 6955,
      "התכנון": 6956,
      "ריצ": 6957,
      "הכביש": 6958,
      "##וסה": 6959,
      "##ושם": 6960,
      "מנד": 6961,
      "המועדון": 6962,
      "##רגיל": 6963,
      "משמע": 6964,
      "##פתחו": 6965,
      "##בסס": 6966,
      "החוקרים": 6967,
      "ואכן": 6968,
      "הקיים": 6969,
      "משתנה": 6970,
      "##גנו": 6971,
      "אחיו": 6972,
      "לחג": 6973,
      "במרץ": 6974,
      "דוגמה": 6975,
      "לאירוע": 6976,
      "##טליה": 6977,
      "במגוון": 6978,
      "##שינו": 6979,
      "כשהיא": 6980,
      "##שמו": 6981,
      "##ort": 6982,
      "##ריף": 6983,
      "שיחות": 6984,
      "##יטניה": 6985,
      "תוס": 6986,
      "##נציה": 6987,
      "אן": 6988,
      "מוסדות": 6989,
      "th": 6990,
      "המכשיר": 6991,
      "מסור": 6992,
      "הזכ": 6993,
      "מזג": 6994,
      "##ליקציה": 6995,
      "תנאים": 6996,
      "מצוות": 6997,
      "כשהם": 6998,
      "הגורמים": 6999,
      "##חייבות": 7000,
      "באופ": 7001,
      "הספרים": 7002,
      "שתהיה": 7003,
      "מעוצ": 7004,
      "ולמע": 7005,
      "מגלה": 7006,
      "למשרד": 7007,
      "##סקו": 7008,
      "נציגי": 7009,
      "הריבית": 7010,
      "לתקופה": 7011,
      "##ניום": 7012,
      "מוזיקה": 7013,
      "הקבוע": 7014,
      "ונג": 7015,
      "##ite": 7016,
      "##בנו": 7017,
      "לרח": 7018,
      "##דיקות": 7019,
      "כאחד": 7020,
      "##החל": 7021,
      "בוחרים": 7022,
      "פניו": 7023,
      "##ארד": 7024,
      "##st": 7025,
      "במילים": 7026,
      "##דרו": 7027,
      "##ליטת": 7028,
      "192": 7029,
      "##ce": 7030,
      "##רישה": 7031,
      "בעיית": 7032,
      "הרופא": 7033,
      "המאמן": 7034,
      "הטלפון": 7035,
      "פרנק": 7036,
      "רישיון": 7037,
      "מחלות": 7038,
      "הקרובה": 7039,
      "##דמנויות": 7040,
      "שישה": 7041,
      "##אד": 7042,
      "דומים": 7043,
      "אופטי": 7044,
      "##גורר": 7045,
      "מאמן": 7046,
      "רשתות": 7047,
      "##ערים": 7048,
      "##טיביים": 7049,
      "בחירות": 7050,
      "הצעות": 7051,
      "יוח": 7052,
      "החברתית": 7053,
      "הצעירים": 7054,
      "עבירות": 7055,
      "הרשויות": 7056,
      "האק": 7057,
      "הכוללת": 7058,
      "##ילדים": 7059,
      "כתבה": 7060,
      "ואינו": 7061,
      "##מטי": 7062,
      "##וצרת": 7063,
      "אורך": 7064,
      "##טיחות": 7065,
      "##זקת": 7066,
      "עלולים": 7067,
      "ובד": 7068,
      "מאור": 7069,
      "##נוני": 7070,
      "חיה": 7071,
      "שאולי": 7072,
      "הבניין": 7073,
      "##ביט": 7074,
      "לגיל": 7075,
      "##דרגה": 7076,
      "##יעוט": 7077,
      "##לוי": 7078,
      "##יוט": 7079,
      "שהגיעו": 7080,
      "##שנים": 7081,
      "קוק": 7082,
      "הקרן": 7083,
      "עשיר": 7084,
      "##בדים": 7085,
      "נראית": 7086,
      "הכוכ": 7087,
      "אמון": 7088,
      "שקיב": 7089,
      "מאמץ": 7090,
      "נקי": 7091,
      "דולרים": 7092,
      "##יסים": 7093,
      "שמר": 7094,
      "מנגד": 7095,
      "ההתא": 7096,
      "מערב": 7097,
      "ההבדל": 7098,
      "המאבק": 7099,
      "ישנן": 7100,
      "##יליא": 7101,
      "הנזק": 7102,
      "באים": 7103,
      "עדות": 7104,
      "המשנה": 7105,
      "האישום": 7106,
      "##ירקטור": 7107,
      "יעלה": 7108,
      "##גרפיה": 7109,
      "איט": 7110,
      "הערך": 7111,
      "דת": 7112,
      "רחבה": 7113,
      "תיע": 7114,
      "ילדי": 7115,
      "הצפ": 7116,
      "ימין": 7117,
      "##טוק": 7118,
      "##op": 7119,
      "להחליט": 7120,
      "ההפר": 7121,
      "האוכלוסייה": 7122,
      "מאבק": 7123,
      "##יכר": 7124,
      "55": 7125,
      "דמויות": 7126,
      "המקרה": 7127,
      "##רונית": 7128,
      "39": 7129,
      "הפתרון": 7130,
      "בהתאמה": 7131,
      "ערבים": 7132,
      "השופטת": 7133,
      "באחת": 7134,
      "חדרי": 7135,
      "ממשיכים": 7136,
      "במים": 7137,
      "מבוגרים": 7138,
      "##ליית": 7139,
      "הגבול": 7140,
      "##ושע": 7141,
      "##חקים": 7142,
      "תפקידו": 7143,
      "בטור": 7144,
      "שיהיו": 7145,
      "שומר": 7146,
      "יעשה": 7147,
      "במלחמת": 7148,
      "ישיבה": 7149,
      "השיטה": 7150,
      "משפטי": 7151,
      "מערך": 7152,
      "שהבי": 7153,
      "לרשת": 7154,
      "אנדר": 7155,
      "##בטא": 7156,
      "השחקן": 7157,
      "##זיקה": 7158,
      "העתיקה": 7159,
      "##פסים": 7160,
      "##מצום": 7161,
      "##קין": 7162,
      "חמאס": 7163,
      "##וחי": 7164,
      "שורה": 7165,
      "הרחב": 7166,
      "ירוק": 7167,
      "התרח": 7168,
      "הנז": 7169,
      "פרויקטים": 7170,
      "לחם": 7171,
      "אזרחי": 7172,
      "מתאימה": 7173,
      "רשימת": 7174,
      "רצח": 7175,
      "##ניסיון": 7176,
      "מהמש": 7177,
      "inn": 7178,
      "##רכנים": 7179,
      "הכלל": 7180,
      "מרצ": 7181,
      "ch": 7182,
      "ממוש": 7183,
      "שליט": 7184,
      "הרגע": 7185,
      "סיים": 7186,
      "וכול": 7187,
      "להאמין": 7188,
      "עזר": 7189,
      "ספרות": 7190,
      "כרי": 7191,
      "ייחודי": 7192,
      "מטרת": 7193,
      "מובן": 7194,
      "הגשת": 7195,
      "הכרח": 7196,
      "שעש": 7197,
      "##od": 7198,
      "##לכת": 7199,
      "האירועים": 7200,
      "מחלקת": 7201,
      "##ערת": 7202,
      "העיתון": 7203,
      "ובק": 7204,
      "בסמוך": 7205,
      "לשנת": 7206,
      "במדינת": 7207,
      "##וונים": 7208,
      "בחודשים": 7209,
      "##מפיין": 7210,
      "דוא": 7211,
      "הרגשתי": 7212,
      "ונה": 7213,
      "חנות": 7214,
      "מקרי": 7215,
      "מקצועיים": 7216,
      "החליטו": 7217,
      "הכללית": 7218,
      "קולנוע": 7219,
      "הבמה": 7220,
      "עכ": 7221,
      "##ציין": 7222,
      "החשוב": 7223,
      "מנצ": 7224,
      "ועדיין": 7225,
      "בניסיון": 7226,
      "##רגש": 7227,
      "##וזיציה": 7228,
      "דיור": 7229,
      "##מרות": 7230,
      "##רגן": 7231,
      "ריח": 7232,
      "המערער": 7233,
      "אמש": 7234,
      "##זמה": 7235,
      "ממוק": 7236,
      "##לטת": 7237,
      "היסטוריה": 7238,
      "יומ": 7239,
      "לשנה": 7240,
      "הניסיון": 7241,
      "האיט": 7242,
      "שהשת": 7243,
      "##פעמים": 7244,
      "##ציית": 7245,
      "המנ": 7246,
      "ידעו": 7247,
      "##פחות": 7248,
      "שמים": 7249,
      "מופיע": 7250,
      "מודעות": 7251,
      "לקבוצה": 7252,
      "##ביץ": 7253,
      "##בחין": 7254,
      "ונק": 7255,
      "שהד": 7256,
      "ההשקעה": 7257,
      "באיכות": 7258,
      "ז\"ל": 7259,
      "הפסד": 7260,
      "##חרור": 7261,
      "##וקטור": 7262,
      "לעני": 7263,
      "עבודתו": 7264,
      "מלו": 7265,
      "##אוס": 7266,
      "מזו": 7267,
      "המקצועי": 7268,
      "שנערך": 7269,
      "כעבור": 7270,
      "הלימוד": 7271,
      "##טרכו": 7272,
      "המחלה": 7273,
      "החיו": 7274,
      "וכבר": 7275,
      "פיט": 7276,
      "נבד": 7277,
      "כוללים": 7278,
      "ואחד": 7279,
      "נקודה": 7280,
      "##לטים": 7281,
      "דובר": 7282,
      "אוסטר": 7283,
      "##ייני": 7284,
      "להצטרף": 7285,
      "הזהב": 7286,
      "ואחרים": 7287,
      "החלל": 7288,
      "הנכס": 7289,
      "מסביב": 7290,
      "##פויות": 7291,
      "##נדס": 7292,
      "סמכות": 7293,
      "ייק": 7294,
      "מתאר": 7295,
      "שרה": 7296,
      "מודע": 7297,
      "מלווה": 7298,
      "דניאל": 7299,
      "להשתתף": 7300,
      "למז": 7301,
      "בכדור": 7302,
      "סיפורים": 7303,
      "##נדו": 7304,
      "תאו": 7305,
      "##נתר": 7306,
      "הכות": 7307,
      "לסט": 7308,
      "לילד": 7309,
      "שקורה": 7310,
      "ואנו": 7311,
      "##למנט": 7312,
      "קשי": 7313,
      "##ודק": 7314,
      "##סטרו": 7315,
      "פורסם": 7316,
      "הקרב": 7317,
      "הקטנה": 7318,
      "ארכ": 7319,
      "##נהלת": 7320,
      "להפעיל": 7321,
      "עליי": 7322,
      "למשק": 7323,
      "איו": 7324,
      "הרבים": 7325,
      "ליע": 7326,
      "##תרבות": 7327,
      "הלבן": 7328,
      "##צועה": 7329,
      "התכנית": 7330,
      "בוח": 7331,
      "##ובו": 7332,
      "הכה": 7333,
      "עצמאי": 7334,
      "אשראי": 7335,
      "לנג": 7336,
      "רגש": 7337,
      "##לנו": 7338,
      "בקצב": 7339,
      "##טייה": 7340,
      "נותנים": 7341,
      "דעות": 7342,
      "##לוף": 7343,
      "המשיבה": 7344,
      "יעיל": 7345,
      "##ess": 7346,
      "הפיל": 7347,
      "לער": 7348,
      "המלח": 7349,
      "שותף": 7350,
      "חובות": 7351,
      "לסיום": 7352,
      "פוליטי": 7353,
      "לאזור": 7354,
      "מתחילה": 7355,
      "וחי": 7356,
      "##לף": 7357,
      "כביש": 7358,
      "##בירו": 7359,
      "אוק": 7360,
      "בעלה": 7361,
      "להשאיר": 7362,
      "התברר": 7363,
      "הרפ": 7364,
      "לפועל": 7365,
      "מכוניות": 7366,
      "##צרה": 7367,
      "שיצא": 7368,
      "לפתור": 7369,
      "מזכיר": 7370,
      "גבוהות": 7371,
      "קיימות": 7372,
      "99": 7373,
      "יעוץ": 7374,
      "לפעילות": 7375,
      "הטענה": 7376,
      "במחצית": 7377,
      "42": 7378,
      "יורו": 7379,
      "הבנה": 7380,
      "אבר": 7381,
      "לחק": 7382,
      "##יחה": 7383,
      "##זוק": 7384,
      "יחיד": 7385,
      "##אתם": 7386,
      "פייסבוק": 7387,
      "##עז": 7388,
      "תגובה": 7389,
      "הפיז": 7390,
      "בריטניה": 7391,
      "הקטנים": 7392,
      "טכני": 7393,
      "להקמת": 7394,
      "הייח": 7395,
      "תוצאה": 7396,
      "מטרות": 7397,
      "ייס": 7398,
      "חכמים": 7399,
      "בשפה": 7400,
      "הורה": 7401,
      "הפרטים": 7402,
      "##יתונאי": 7403,
      "הרגל": 7404,
      "##יננו": 7405,
      "המסך": 7406,
      "בתחומי": 7407,
      "בחברות": 7408,
      "השולחן": 7409,
      "שמאפשר": 7410,
      "##פלת": 7411,
      "מהכ": 7412,
      "שנכנס": 7413,
      "ידיעות": 7414,
      "התנאים": 7415,
      "אילן": 7416,
      "המשפטים": 7417,
      "##ניעת": 7418,
      "המערבי": 7419,
      "##סטיק": 7420,
      "##צועת": 7421,
      "חלה": 7422,
      "גיר": 7423,
      "חצ": 7424,
      "הפלשתי": 7425,
      "עליך": 7426,
      "שבועיים": 7427,
      "##יפוי": 7428,
      "##שמעות": 7429,
      "החדרים": 7430,
      "##בויות": 7431,
      "בחירת": 7432,
      "##תחם": 7433,
      "לדון": 7434,
      "בכנסת": 7435,
      "בלה": 7436,
      "##יזם": 7437,
      "הממוצע": 7438,
      "##וטו": 7439,
      "עשתה": 7440,
      "לאן": 7441,
      "המתאים": 7442,
      "כללית": 7443,
      "מצאתי": 7444,
      "לומדים": 7445,
      "כוכב": 7446,
      "מובה": 7447,
      "האהבה": 7448,
      "עליהן": 7449,
      "העיניים": 7450,
      "מסי": 7451,
      "דרו": 7452,
      "השער": 7453,
      "לפרס": 7454,
      "משקיעים": 7455,
      "יתכן": 7456,
      "מנע": 7457,
      "סוגים": 7458,
      "קיצוני": 7459,
      "האיחוד": 7460,
      "האחד": 7461,
      "##ילנד": 7462,
      "ההש": 7463,
      "##שמים": 7464,
      "הבעלים": 7465,
      "הקדוש": 7466,
      "ההצעה": 7467,
      "הפוליטית": 7468,
      "רעיונות": 7469,
      "המועד": 7470,
      "##יינות": 7471,
      "בצורת": 7472,
      "באג": 7473,
      "נהדר": 7474,
      "בסדרה": 7475,
      "אמה": 7476,
      "מעדי": 7477,
      "מחזור": 7478,
      "שאנשים": 7479,
      "ואתם": 7480,
      "שרת": 7481,
      "בואו": 7482,
      "##כשירים": 7483,
      "בטוחים": 7484,
      "לתע": 7485,
      "##יבורים": 7486,
      "ותח": 7487,
      "הביניים": 7488,
      "והשי": 7489,
      "גמר": 7490,
      "65": 7491,
      "לעסוק": 7492,
      "אריה": 7493,
      "תורת": 7494,
      "גילה": 7495,
      "ידיים": 7496,
      "שנקרא": 7497,
      "מפק": 7498,
      "ולר": 7499,
      "קולות": 7500,
      "אנגלית": 7501,
      "דגש": 7502,
      "מפעל": 7503,
      "נועד": 7504,
      "מסמכים": 7505,
      "ההק": 7506,
      "כחול": 7507,
      "##גיל": 7508,
      "בראיון": 7509,
      "מפי": 7510,
      "##צהיר": 7511,
      "החשובים": 7512,
      "הביקורת": 7513,
      "##חזר": 7514,
      "חקירה": 7515,
      "בצרפת": 7516,
      "הפנימי": 7517,
      "במוז": 7518,
      "שיטות": 7519,
      "בהיסטוריה": 7520,
      "אמורים": 7521,
      "##שוך": 7522,
      "נפתח": 7523,
      "תעשיית": 7524,
      "יאיר": 7525,
      "הסטודנטים": 7526,
      "המסלול": 7527,
      "לטווח": 7528,
      "במב": 7529,
      "וחבר": 7530,
      "##ri": 7531,
      "זרי": 7532,
      "מבצעים": 7533,
      "הסכום": 7534,
      "האנושי": 7535,
      "לנצל": 7536,
      "המנהל": 7537,
      "לכמה": 7538,
      "הנכונה": 7539,
      "אישיות": 7540,
      "##פוט": 7541,
      "עמי": 7542,
      "##ותן": 7543,
      "אמי": 7544,
      "בהיות": 7545,
      "רשאי": 7546,
      "נודע": 7547,
      "עסקי": 7548,
      "##ew": 7549,
      "הפלסטינים": 7550,
      "זכו": 7551,
      "פועלת": 7552,
      "בשימוש": 7553,
      "השיווק": 7554,
      "43": 7555,
      "מורכבת": 7556,
      "מיצ": 7557,
      "שהוב": 7558,
      "##וגי": 7559,
      "##לטו": 7560,
      "האחים": 7561,
      "##וריית": 7562,
      "הרוב": 7563,
      "הפי": 7564,
      "מבקשים": 7565,
      "אתרי": 7566,
      "מבוסס": 7567,
      "בפתח": 7568,
      "הנהלת": 7569,
      "##לוונטי": 7570,
      "הכדורגל": 7571,
      "מרגישים": 7572,
      "המקר": 7573,
      "##פגש": 7574,
      "המילים": 7575,
      "צמח": 7576,
      "בטוחה": 7577,
      "בגרמניה": 7578,
      "ודאי": 7579,
      "אסטרטג": 7580,
      "##כללה": 7581,
      "##פולים": 7582,
      "ברחובות": 7583,
      "מודל": 7584,
      "##יגר": 7585,
      "##14": 7586,
      "אובמה": 7587,
      "תפס": 7588,
      "מינית": 7589,
      "רוד": 7590,
      "מסו": 7591,
      "מחשבה": 7592,
      "המכונה": 7593,
      "אריאל": 7594,
      "שירה": 7595,
      "בהתחלה": 7596,
      "##כנתא": 7597,
      "##מתם": 7598,
      "התפר": 7599,
      "##פלגות": 7600,
      "קילומטרים": 7601,
      "סוד": 7602,
      "בבעלות": 7603,
      "##ידוד": 7604,
      "ומז": 7605,
      "לפיד": 7606,
      "לרדת": 7607,
      "יוקר": 7608,
      "והתק": 7609,
      "ששמ": 7610,
      "ואה": 7611,
      "##עדי": 7612,
      "לסרט": 7613,
      "למספר": 7614,
      "הגיל": 7615,
      "ואתה": 7616,
      "התעשייה": 7617,
      "לגור": 7618,
      "הצבע": 7619,
      "מנהלים": 7620,
      "לתחום": 7621,
      "##ופין": 7622,
      "החמי": 7623,
      "יקבל": 7624,
      "להתר": 7625,
      "המשתמש": 7626,
      "כיף": 7627,
      "##רוכות": 7628,
      "לסיים": 7629,
      "חמור": 7630,
      "לימודים": 7631,
      "סיבות": 7632,
      "##גוריה": 7633,
      "בקשת": 7634,
      "ניקיון": 7635,
      "סטודנטים": 7636,
      "##ננות": 7637,
      "בסביבה": 7638,
      "נוחות": 7639,
      "משלו": 7640,
      "מומחים": 7641,
      "צבאי": 7642,
      "מהל": 7643,
      "זמני": 7644,
      "השות": 7645,
      "לחד": 7646,
      "אליהו": 7647,
      "הבאות": 7648,
      "שבעה": 7649,
      "שעשו": 7650,
      "בדו": 7651,
      "שעדיין": 7652,
      "##ak": 7653,
      "ערבי": 7654,
      "##עורר": 7655,
      "המוסד": 7656,
      "פנימה": 7657,
      "הוצאה": 7658,
      "##וכנים": 7659,
      "וגר": 7660,
      "su": 7661,
      "##זול": 7662,
      "הבדל": 7663,
      "מרחב": 7664,
      "הצי": 7665,
      "מקומית": 7666,
      "שייך": 7667,
      "ינו": 7668,
      "בטווח": 7669,
      "ללמד": 7670,
      "תושבים": 7671,
      "האלבום": 7672,
      "תיאור": 7673,
      "ליפ": 7674,
      "מגע": 7675,
      "בערוץ": 7676,
      "לקו": 7677,
      "##ותרות": 7678,
      "נוב": 7679,
      "מוסיף": 7680,
      "יצירה": 7681,
      "שנאמר": 7682,
      "הטרור": 7683,
      "היסוד": 7684,
      "מאמר": 7685,
      "משך": 7686,
      "הנפט": 7687,
      "on": 7688,
      "אדי": 7689,
      "בנושאים": 7690,
      "מצבי": 7691,
      "המסורת": 7692,
      "המיני": 7693,
      "רגשות": 7694,
      "##בילה": 7695,
      "בארגון": 7696,
      "##ורן": 7697,
      "##קוש": 7698,
      "האורחים": 7699,
      "הגמ": 7700,
      "##חיל": 7701,
      "האימ": 7702,
      "מית": 7703,
      "נוסעים": 7704,
      "##אפ": 7705,
      "##ונתו": 7706,
      "שרוב": 7707,
      "נוכחות": 7708,
      "##ידך": 7709,
      "פיי": 7710,
      "##מ\"ש": 7711,
      "##בתא": 7712,
      "##123": 7713,
      "מטי": 7714,
      "עבירה": 7715,
      "##יתרון": 7716,
      "ביא": 7717,
      "שהז": 7718,
      "רמות": 7719,
      "ספור": 7720,
      "תוק": 7721,
      "היועץ": 7722,
      "עובדה": 7723,
      "הידוע": 7724,
      "שמירה": 7725,
      "##וגן": 7726,
      "##ושבי": 7727,
      "##סמו": 7728,
      "פרטית": 7729,
      "הערבית": 7730,
      "##456": 7731,
      "##ab": 7732,
      "לשתף": 7733,
      "##ואליציה": 7734,
      "##בהיר": 7735,
      "בבנק": 7736,
      "המקדש": 7737,
      "##מז": 7738,
      "ואפשר": 7739,
      "לקוח": 7740,
      "ספרד": 7741,
      "כנס": 7742,
      "הונ": 7743,
      "##יגות": 7744,
      "ממי": 7745,
      "להחזיק": 7746,
      "מס'": 7747,
      "חו": 7748,
      "פרחים": 7749,
      "להשלים": 7750,
      "ילדות": 7751,
      "הארי": 7752,
      "עוק": 7753,
      "לדיון": 7754,
      "המשתתפים": 7755,
      "תוא": 7756,
      "התינוק": 7757,
      "הקלי": 7758,
      "##ers": 7759,
      "הצעה": 7760,
      "ממשל": 7761,
      "יצאה": 7762,
      "##נהלה": 7763,
      "הבת": 7764,
      "##ביבות": 7765,
      "והמו": 7766,
      "מתו": 7767,
      "המוזיקה": 7768,
      "##למו": 7769,
      "בעיצוב": 7770,
      "##שתתפות": 7771,
      "המוות": 7772,
      "להקל": 7773,
      "##פסד": 7774,
      "הזכויות": 7775,
      "##גוש": 7776,
      "במציאות": 7777,
      "למטה": 7778,
      "190": 7779,
      "איטליה": 7780,
      "המראה": 7781,
      "כוכביםהחל": 7782,
      "הכבוד": 7783,
      "מרה": 7784,
      "למרכז": 7785,
      "לחסוך": 7786,
      "דפ": 7787,
      "התנהלות": 7788,
      "לרכב": 7789,
      "##הה": 7790,
      "##מתין": 7791,
      "העולמית": 7792,
      "גבול": 7793,
      "ילי": 7794,
      "זקוקים": 7795,
      "sp": 7796,
      "מסיבות": 7797,
      "יומיים": 7798,
      "##סד": 7799,
      "העצמי": 7800,
      "המסע": 7801,
      "מסק": 7802,
      "מגן": 7803,
      "הניתוח": 7804,
      "מצליחים": 7805,
      "##ורג'": 7806,
      "הישיבה": 7807,
      "ארגוני": 7808,
      "הבתים": 7809,
      "ויכול": 7810,
      "בסט": 7811,
      "##בלי": 7812,
      "##15": 7813,
      "כניסת": 7814,
      "לגיטי": 7815,
      "הקונ": 7816,
      "פארק": 7817,
      "מכה": 7818,
      "הטכנולוג": 7819,
      "##יתונים": 7820,
      "מבקר": 7821,
      "סבור": 7822,
      "שנג": 7823,
      "בגן": 7824,
      "התז": 7825,
      "בדיון": 7826,
      "להיל": 7827,
      "מנק": 7828,
      "סובל": 7829,
      "##ידור": 7830,
      "מספקים": 7831,
      "בתפ": 7832,
      "הייצור": 7833,
      "##ברך": 7834,
      "מכירת": 7835,
      "חלל": 7836,
      "הלוח": 7837,
      "ילדה": 7838,
      "הנג": 7839,
      "פוסט": 7840,
      "העמ": 7841,
      "במז": 7842,
      "600": 7843,
      "46": 7844,
      "לשו": 7845,
      "בתחומים": 7846,
      "גילו": 7847,
      "אנושי": 7848,
      "באחרונה": 7849,
      "המיל": 7850,
      "##חיית": 7851,
      "##ודיע": 7852,
      "##em": 7853,
      "בוא": 7854,
      "שאותו": 7855,
      "בתורה": 7856,
      "סיני": 7857,
      "מנהלי": 7858,
      "הזמנים": 7859,
      "בעבוד": 7860,
      "ובהם": 7861,
      "והתח": 7862,
      "משוב": 7863,
      "טיול": 7864,
      "מצאו": 7865,
      "גוריון": 7866,
      "זיכרון": 7867,
      "ממק": 7868,
      "בשורה": 7869,
      "מחול": 7870,
      "דלתות": 7871,
      "בתחרות": 7872,
      "מתג": 7873,
      "אשדוד": 7874,
      "זמנית": 7875,
      "נהר": 7876,
      "באליפות": 7877,
      "תקצ": 7878,
      "ושר": 7879,
      "מלכת": 7880,
      "מקבלת": 7881,
      "בגודל": 7882,
      "##45678": 7883,
      "יציר": 7884,
      "חוזרים": 7885,
      "בצבא": 7886,
      "תמצאו": 7887,
      "הפלסטינית": 7888,
      "ס\"מ": 7889,
      "טקסט": 7890,
      "מספרים": 7891,
      "ואר": 7892,
      "##ינוכ": 7893,
      "רחבי": 7894,
      "##אנו": 7895,
      "המטבח": 7896,
      "עצמך": 7897,
      "אהבת": 7898,
      "##ופק": 7899,
      "##ינור": 7900,
      "יצירות": 7901,
      "מעורב": 7902,
      "##יטית": 7903,
      "הדרו": 7904,
      "השמאל": 7905,
      "רלוונט": 7906,
      "##כוניות": 7907,
      "הנסיעה": 7908,
      "התס": 7909,
      "מודה": 7910,
      "והאי": 7911,
      "גילוי": 7912,
      "שנעשה": 7913,
      "##יצות": 7914,
      "##22": 7915,
      "אימון": 7916,
      "משרדי": 7917,
      "חסי": 7918,
      "כדוג": 7919,
      "##גול": 7920,
      "הוחלט": 7921,
      "נגדו": 7922,
      "השירים": 7923,
      "##קעות": 7924,
      "החיילים": 7925,
      "שפה": 7926,
      "בממוצע": 7927,
      "נייר": 7928,
      "שאול": 7929,
      "לפרסם": 7930,
      "העין": 7931,
      "שרוצה": 7932,
      "מבנים": 7933,
      "מוכרים": 7934,
      "וג'": 7935,
      "לחברת": 7936,
      "התחלתי": 7937,
      "##פיץ": 7938,
      "תיר": 7939,
      "##מתה": 7940,
      "והרי": 7941,
      "הנוג": 7942,
      "אישיים": 7943,
      "הודו": 7944,
      "הופכת": 7945,
      "הליכה": 7946,
      "##כתו": 7947,
      "זכאי": 7948,
      "עוזר": 7949,
      "##גיט": 7950,
      "הקריירה": 7951,
      "לכאן": 7952,
      "מגדל": 7953,
      "מתוק": 7954,
      "ושו": 7955,
      "הצהריים": 7956,
      "מוצאים": 7957,
      "ראינו": 7958,
      "לבק": 7959,
      "##ליג": 7960,
      "פעילויות": 7961,
      "האישית": 7962,
      "ומט": 7963,
      "העצמאות": 7964,
      "וכאשר": 7965,
      "##בין": 7966,
      "במחקר": 7967,
      "##יקאי": 7968,
      "לעצמם": 7969,
      "ערים": 7970,
      "ביס": 7971,
      "##ומדת": 7972,
      "##חב": 7973,
      "en": 7974,
      "שניה": 7975,
      "##צרי": 7976,
      "לנסוע": 7977,
      "למידה": 7978,
      "להציל": 7979,
      "##יאים": 7980,
      "הבדיקה": 7981,
      "##מלא": 7982,
      "האדום": 7983,
      "הנהג": 7984,
      "##נקו": 7985,
      "הווי": 7986,
      "בהליך": 7987,
      "לשכנע": 7988,
      "המפר": 7989,
      "מועדון": 7990,
      "##פלה": 7991,
      "תחנת": 7992,
      "מכון": 7993,
      "המותג": 7994,
      "בתשלום": 7995,
      "לשאלה": 7996,
      "##יסר": 7997,
      "נתי": 7998,
      "##ניע": 7999,
      "##מכות": 8000,
      "המשותף": 8001,
      "בפס": 8002,
      "##מנ": 8003,
      "##צינות": 8004,
      "ויז": 8005,
      "##ast": 8006,
      "##פלל": 8007,
      "התוכן": 8008,
      "מסכים": 8009,
      "שעשה": 8010,
      "הנחה": 8011,
      "הסיבות": 8012,
      "מבוק": 8013,
      "פוטנציאל": 8014,
      "סנט": 8015,
      "מהירות": 8016,
      "לזמן": 8017,
      "טו": 8018,
      "מעוניין": 8019,
      "היצירה": 8020,
      "as": 8021,
      "שקרה": 8022,
      "המכירות": 8023,
      "לסגור": 8024,
      "המוט": 8025,
      "לבנון": 8026,
      "אוח": 8027,
      "הצו": 8028,
      "##16": 8029,
      "שעליו": 8030,
      "גיוס": 8031,
      "##דמן": 8032,
      "עסקה": 8033,
      "ולמרות": 8034,
      "ולקבל": 8035,
      "ממשיכה": 8036,
      "הנדל\"ן": 8037,
      "רשמי": 8038,
      "##יסי": 8039,
      "נובע": 8040,
      "לעובדים": 8041,
      "תופעה": 8042,
      "בכנס": 8043,
      "הבינלאומית": 8044,
      "מצט": 8045,
      "##יהו": 8046,
      "ברזל": 8047,
      "מתרח": 8048,
      "##יבא": 8049,
      "מחלה": 8050,
      "##ולדת": 8051,
      "מעשי": 8052,
      "עשיתי": 8053,
      "##בטחה": 8054,
      "ופת": 8055,
      "לפיתוח": 8056,
      "להנ": 8057,
      "תאי": 8058,
      "ראיות": 8059,
      "בחור": 8060,
      "##רכיב": 8061,
      "##ine": 8062,
      "באיזה": 8063,
      "נדל\"ן": 8064,
      "המורה": 8065,
      "אמונה": 8066,
      "יובל": 8067,
      "לנוכח": 8068,
      "##וסיה": 8069,
      "אמריקאי": 8070,
      "שאלו": 8071,
      "מציין": 8072,
      "בלונדון": 8073,
      "##נ\"": 8074,
      "אישום": 8075,
      "##יעוץ": 8076,
      "דקה": 8077,
      "לקידום": 8078,
      "המוכר": 8079,
      "מפגש": 8080,
      "שכזה": 8081,
      "קושי": 8082,
      "מילוי": 8083,
      "התשלום": 8084,
      "03": 8085,
      "מחס": 8086,
      "רפואית": 8087,
      "##פלי": 8088,
      "נוף": 8089,
      "ישירה": 8090,
      "גוש": 8091,
      "מכונית": 8092,
      "מאמרים": 8093,
      "איז": 8094,
      "ליצירת": 8095,
      "##יצב": 8096,
      "הצרפת": 8097,
      "##סאות": 8098,
      "בטענה": 8099,
      "בגדים": 8100,
      "טענו": 8101,
      "לענות": 8102,
      "בתנאים": 8103,
      "אורג": 8104,
      "לאינ": 8105,
      "##ליקציות": 8106,
      "כג": 8107,
      "לנושא": 8108,
      "מתאימים": 8109,
      "באזורים": 8110,
      "במונ": 8111,
      "במובן": 8112,
      "רכש": 8113,
      "בתקשורת": 8114,
      "מכיל": 8115,
      "##מטרים": 8116,
      "##לקים": 8117,
      "לעת": 8118,
      "ההלו": 8119,
      "תשע": 8120,
      "##ובש": 8121,
      "05": 8122,
      "ובמיוחד": 8123,
      "##עשה": 8124,
      "##לונן": 8125,
      "תכונות": 8126,
      "##מעט": 8127,
      "השופטים": 8128,
      "דוגמת": 8129,
      "לחודש": 8130,
      "הפיתוח": 8131,
      "בצל": 8132,
      "מיכאל": 8133,
      "חוף": 8134,
      "עמוס": 8135,
      "פלו": 8136,
      "##ניתוח": 8137,
      "בסין": 8138,
      "השניה": 8139,
      "וידאו": 8140,
      "##לר": 8141,
      "פנימי": 8142,
      "##רגשות": 8143,
      "##כירת": 8144,
      "ההוא": 8145,
      "שיטה": 8146,
      "קווי": 8147,
      "התיירות": 8148,
      "ההליך": 8149,
      "בקט": 8150,
      "להודות": 8151,
      "ומשפ": 8152,
      "דיי": 8153,
      "שפות": 8154,
      "הבעיות": 8155,
      "##לס": 8156,
      "גי": 8157,
      "250": 8158,
      "מתכוון": 8159,
      "הלידה": 8160,
      "דיוק": 8161,
      "שיקול": 8162,
      "מיכל": 8163,
      "בבל": 8164,
      "מידת": 8165,
      "המגיע": 8166,
      "המבקשת": 8167,
      "מוזר": 8168,
      "לישון": 8169,
      "היותר": 8170,
      "סגנון": 8171,
      "הגורם": 8172,
      "לשאת": 8173,
      "הארוך": 8174,
      "##if": 8175,
      "##דרכה": 8176,
      "יימס": 8177,
      "בחצי": 8178,
      "##_07": 8179,
      "לסי": 8180,
      "מסוגלים": 8181,
      "האזרחים": 8182,
      "##יצוץ": 8183,
      "לגייס": 8184,
      "במאמר": 8185,
      "הפגיעה": 8186,
      "49": 8187,
      "אלוף": 8188,
      "שהמש": 8189,
      "הרומ": 8190,
      "מחבר": 8191,
      "ואשר": 8192,
      "השינה": 8193,
      "המדובר": 8194,
      "ציר": 8195,
      "פנו": 8196,
      "בהפ": 8197,
      "##סמה": 8198,
      "##יעץ": 8199,
      "120": 8200,
      "דו\"ח": 8201,
      "בתה": 8202,
      "צמיחה": 8203,
      "הפוליטי": 8204,
      "47": 8205,
      "בפייסבוק": 8206,
      "##רוויח": 8207,
      "עבורו": 8208,
      "הוראה": 8209,
      "התובעים": 8210,
      "ניסו": 8211,
      "ומשת": 8212,
      "מרשים": 8213,
      "האות": 8214,
      "הסוב": 8215,
      "גני": 8216,
      "בפרי": 8217,
      "##מצב": 8218,
      "##מצאת": 8219,
      "היית": 8220,
      "תוכנה": 8221,
      "חות": 8222,
      "לכרטיס": 8223,
      "חיובי": 8224,
      "נראים": 8225,
      "אולמרט": 8226,
      "הקשורים": 8227,
      "##מותת": 8228,
      "מייס": 8229,
      "##טוף": 8230,
      "טכנולוגיה": 8231,
      "קרנות": 8232,
      "הלהקה": 8233,
      "##טדיון": 8234,
      "טוענת": 8235,
      "הנבחרת": 8236,
      "עלויות": 8237,
      "להצלחה": 8238,
      "הקיבוץ": 8239,
      "המהלך": 8240,
      "בטלוויזיה": 8241,
      "הסופר": 8242,
      "המטופל": 8243,
      "סקס": 8244,
      "לגוף": 8245,
      "הסימ": 8246,
      "ההצלחה": 8247,
      "עובדות": 8248,
      "בניה": 8249,
      "##פנות": 8250,
      "##יטליה": 8251,
      "ולכל": 8252,
      "##ודאות": 8253,
      "כפול": 8254,
      "המורים": 8255,
      "הוקמה": 8256,
      "שנגר": 8257,
      "ארד": 8258,
      "בדירה": 8259,
      "##מיון": 8260,
      "סרטן": 8261,
      "##כותית": 8262,
      "##ומרי": 8263,
      "כרא": 8264,
      "השעה": 8265,
      "בבני": 8266,
      "החומרים": 8267,
      "הטקסט": 8268,
      "הוביל": 8269,
      "לים": 8270,
      "שנס": 8271,
      "ו'": 8272,
      "מפתיע": 8273,
      "##סיקים": 8274,
      "##פתור": 8275,
      "נוחה": 8276,
      "##חילה": 8277,
      "##גישים": 8278,
      "מסתבר": 8279,
      "פרטיות": 8280,
      "##ירושין": 8281,
      "##פנו": 8282,
      "##_06": 8283,
      "כתובת": 8284,
      "בפנים": 8285,
      "הופכים": 8286,
      "שלטון": 8287,
      "הדמויות": 8288,
      "תתק": 8289,
      "שלט": 8290,
      "##ולית": 8291,
      "##כנסה": 8292,
      "##פעלה": 8293,
      "יעד": 8294,
      "הקודש": 8295,
      "היפה": 8296,
      "צבעים": 8297,
      "הסכי": 8298,
      "הקפה": 8299,
      "##כמת": 8300,
      "דתי": 8301,
      "צמ": 8302,
      "עונש": 8303,
      "נערך": 8304,
      "הניס": 8305,
      "בתחילה": 8306,
      "מישראל": 8307,
      "למועד": 8308,
      "ליברמן": 8309,
      "ניקוי": 8310,
      "##חיות": 8311,
      "עופר": 8312,
      "##_08": 8313,
      "הופעות": 8314,
      "אגף": 8315,
      "שולח": 8316,
      "העץ": 8317,
      "ערו": 8318,
      "פסיכ": 8319,
      "כו": 8320,
      "##פיר": 8321,
      "##משה": 8322,
      "בשו": 8323,
      "שמעתי": 8324,
      "כור": 8325,
      "המערבית": 8326,
      "נפל": 8327,
      "##פשרו": 8328,
      "הוי": 8329,
      "ביצע": 8330,
      "לאומית": 8331,
      "במרחב": 8332,
      "משע": 8333,
      "לכבוד": 8334,
      "קשת": 8335,
      "המוני": 8336,
      "מחייב": 8337,
      "רוע": 8338,
      "##רוסופט": 8339,
      "וניתן": 8340,
      "ארוכים": 8341,
      "לדחות": 8342,
      "##ובייקט": 8343,
      "##ill": 8344,
      "##נרת": 8345,
      "##חתית": 8346,
      "##וצרות": 8347,
      "הממל": 8348,
      "רשויות": 8349,
      "הביטוי": 8350,
      "הדת": 8351,
      "קריאה": 8352,
      "ונות": 8353,
      "מכם": 8354,
      "במשקל": 8355,
      "לתיק": 8356,
      "שבכל": 8357,
      "אורחים": 8358,
      "ניתנה": 8359,
      "חנו": 8360,
      "מקומי": 8361,
      "##בינו": 8362,
      "הבכורה": 8363,
      "חוזרת": 8364,
      "##פסה": 8365,
      "בתוכו": 8366,
      "מאזן": 8367,
      "##נסון": 8368,
      "מקל": 8369,
      "עונת": 8370,
      "מדויק": 8371,
      "זוגות": 8372,
      "ממוצע": 8373,
      "הצמיחה": 8374,
      "79": 8375,
      "סיג": 8376,
      "הקיר": 8377,
      "רובם": 8378,
      "בלשון": 8379,
      "##גרי": 8380,
      "##טיסט": 8381,
      "כק": 8382,
      "קשרים": 8383,
      "##יסא": 8384,
      "תמר": 8385,
      "מסל": 8386,
      "##ps": 8387,
      "חולה": 8388,
      "חני": 8389,
      "עמיד": 8390,
      "מחפש": 8391,
      "##וצמה": 8392,
      "פלט": 8393,
      "הגענו": 8394,
      "שכולם": 8395,
      "שומן": 8396,
      "מוגבל": 8397,
      "מרגישה": 8398,
      "נעימה": 8399,
      "##סמים": 8400,
      "ונראה": 8401,
      "##ביס": 8402,
      "ש'": 8403,
      "לעצמה": 8404,
      "צורת": 8405,
      "רישום": 8406,
      "מער": 8407,
      "##סקות": 8408,
      "##כתבו": 8409,
      "##סטרטג": 8410,
      "ממקום": 8411,
      "##צאים": 8412,
      "##יעון": 8413,
      "האשה": 8414,
      "הימין": 8415,
      "ריבית": 8416,
      "יתרונות": 8417,
      "החוויה": 8418,
      "##כבת": 8419,
      "בזק": 8420,
      "השיער": 8421,
      "מתכנ": 8422,
      "תופעות": 8423,
      "השאלות": 8424,
      "סוריה": 8425,
      "סוכר": 8426,
      "##וויית": 8427,
      "##נצל": 8428,
      "אצלי": 8429,
      "לברר": 8430,
      "ופי": 8431,
      "תעודת": 8432,
      "אופניים": 8433,
      "מחזיק": 8434,
      "##מלה": 8435,
      "sh": 8436,
      "מאפשרים": 8437,
      "##_05": 8438,
      "וכש": 8439,
      "ובלי": 8440,
      "העלה": 8441,
      "להבחין": 8442,
      "להחלט": 8443,
      "חירום": 8444,
      "בשדה": 8445,
      "צורה": 8446,
      "##חונות": 8447,
      "שאינן": 8448,
      "##כחות": 8449,
      "ורצ": 8450,
      "מסכי": 8451,
      "המשקיעים": 8452,
      "ההפ": 8453,
      "נחשבת": 8454,
      "בפרויקט": 8455,
      "נתפס": 8456,
      "מתברר": 8457,
      "חיובית": 8458,
      "ברירה": 8459,
      "מסגרת": 8460,
      "חברתיים": 8461,
      "במקור": 8462,
      "85": 8463,
      "בכלי": 8464,
      "משלי": 8465,
      "ערכים": 8466,
      "סור": 8467,
      "הדיור": 8468,
      "##ארו": 8469,
      "מצפה": 8470,
      "היישוב": 8471,
      "המין": 8472,
      "האוה": 8473,
      "##מלונות": 8474,
      "משלה": 8475,
      "##מלית": 8476,
      "מיז": 8477,
      "החורף": 8478,
      "מצליחה": 8479,
      "##יהוט": 8480,
      "כף": 8481,
      "הדרכים": 8482,
      "##17": 8483,
      "##נתן": 8484,
      "##דונים": 8485,
      "השיב": 8486,
      "ובכ": 8487,
      "ג'ורג'": 8488,
      "##פעם": 8489,
      "נאלץ": 8490,
      "החברתיות": 8491,
      "שקד": 8492,
      "הנתבעים": 8493,
      "רובר": 8494,
      "ובצ": 8495,
      "##נוב": 8496,
      "אפשרית": 8497,
      "800": 8498,
      "החברתי": 8499,
      "##יזון": 8500,
      "מצבים": 8501,
      "טכנולוגיות": 8502,
      "העק": 8503,
      "באוניברסיטה": 8504,
      "עשרים": 8505,
      "בער": 8506,
      "בציבור": 8507,
      "ההחלטות": 8508,
      "##בני": 8509,
      "##ולן": 8510,
      "##מנם": 8511,
      "לדין": 8512,
      "הצפון": 8513,
      "הערים": 8514,
      "##פשט": 8515,
      "הקלא": 8516,
      "##מישה": 8517,
      "בוע": 8518,
      "##שיכו": 8519,
      "שעד": 8520,
      "תוקף": 8521,
      "ומקצוע": 8522,
      "ארגונים": 8523,
      "כבש": 8524,
      "סדרה": 8525,
      "הדתי": 8526,
      "יפים": 8527,
      "##וננות": 8528,
      "במועדון": 8529,
      "##חשבת": 8530,
      "##40": 8531,
      "מנגנון": 8532,
      "והל": 8533,
      "עצמן": 8534,
      "##_01": 8535,
      "להתעלם": 8536,
      "לחש": 8537,
      "חשבו": 8538,
      "נוז": 8539,
      "דרכי": 8540,
      "להצביע": 8541,
      "הראו": 8542,
      "##בדיל": 8543,
      "מתה": 8544,
      "ספקים": 8545,
      "##ידוע": 8546,
      "למות": 8547,
      "בחול": 8548,
      "הצפו": 8549,
      "הדג": 8550,
      "המעור": 8551,
      "הגעתי": 8552,
      "##מיקה": 8553,
      "הנבחר": 8554,
      "##למי": 8555,
      "##יטואציה": 8556,
      "שואל": 8557,
      "ההלכה": 8558,
      "המצל": 8559,
      "המדיניות": 8560,
      "##ירקטוריון": 8561,
      "##יכוב": 8562,
      "השלב": 8563,
      "בשעת": 8564,
      "ההסתדרות": 8565,
      "להזכיר": 8566,
      "טיפולים": 8567,
      "החיצוני": 8568,
      "במסע": 8569,
      "הראשית": 8570,
      "מעורבות": 8571,
      "העסקי": 8572,
      "##ity": 8573,
      "##נגליה": 8574,
      "למחרת": 8575,
      "החלטתי": 8576,
      "מטבח": 8577,
      "##_03": 8578,
      "##פסל": 8579,
      "##מוכה": 8580,
      "##נגרס": 8581,
      "##ודרת": 8582,
      "##נטיים": 8583,
      "חסרי": 8584,
      "במועד": 8585,
      "הרכישה": 8586,
      "יולי": 8587,
      "ובכן": 8588,
      "הפתיחה": 8589,
      "רגילים": 8590,
      "##טחוני": 8591,
      "היצר": 8592,
      "נגר": 8593,
      "לתמוך": 8594,
      "נפלא": 8595,
      "האמונה": 8596,
      "ונש": 8597,
      "לחזק": 8598,
      "התייחסות": 8599,
      "##_09": 8600,
      "הבנות": 8601,
      "אשכנ": 8602,
      "##איים": 8603,
      "התאונה": 8604,
      "ומעלה": 8605,
      "##מותו": 8606,
      "##גרו": 8607,
      "המשיכה": 8608,
      "08": 8609,
      "מכוח": 8610,
      "##ליפה": 8611,
      "הביאו": 8612,
      "במגזר": 8613,
      "מוצלח": 8614,
      "הסכמה": 8615,
      "מיקום": 8616,
      "נמשך": 8617,
      "במשפט": 8618,
      "קלות": 8619,
      "חייל": 8620,
      "##לקי": 8621,
      "מחשבים": 8622,
      "מהווים": 8623,
      "להופיע": 8624,
      "להרחיב": 8625,
      "סיפרה": 8626,
      "ל'": 8627,
      "שהוש": 8628,
      "##_11": 8629,
      "07": 8630,
      "##סס": 8631,
      "בחש": 8632,
      "הכרי": 8633,
      "##לאם": 8634,
      "לרע": 8635,
      "כאל": 8636,
      "נמר": 8637,
      "התמונות": 8638,
      "האינטר": 8639,
      "האו\"ם": 8640,
      "אוניברסיטת": 8641,
      "בשילוב": 8642,
      "במשטרה": 8643,
      "##כין": 8644,
      "##_10": 8645,
      "קני": 8646,
      "##שרון": 8647,
      "הגרמני": 8648,
      "בחרו": 8649,
      "הגברים": 8650,
      "לכלל": 8651,
      "בבסיס": 8652,
      "הטעם": 8653,
      "##ואלית": 8654,
      "הערכה": 8655,
      "להתקיים": 8656,
      "לאשר": 8657,
      "קונס": 8658,
      "##רונים": 8659,
      "מסמך": 8660,
      "לתאר": 8661,
      "כביכול": 8662,
      "בכר": 8663,
      "המחשבה": 8664,
      "הרמב\"ם": 8665,
      "מתחילת": 8666,
      "##פץ": 8667,
      "ומאפשר": 8668,
      "פח": 8669,
      "תלויה": 8670,
      "נולדה": 8671,
      "##זקות": 8672,
      "ייחודית": 8673,
      "סני": 8674,
      "מתר": 8675,
      "09": 8676,
      "ישן": 8677,
      "סיב": 8678,
      "ברכה": 8679,
      "תשמ": 8680,
      "הדוג": 8681,
      "אצלו": 8682,
      "פיצוי": 8683,
      "95": 8684,
      "מקס": 8685,
      "הגן": 8686,
      "גג": 8687,
      "חסרת": 8688,
      "לביטוח": 8689,
      "##פקות": 8690,
      "המספר": 8691,
      "חוקרים": 8692,
      "נהרגו": 8693,
      "נמוכים": 8694,
      "##פאת": 8695,
      "הישן": 8696,
      "ובעלי": 8697,
      "##ורש": 8698,
      "צפויים": 8699,
      "הפער": 8700,
      "עידן": 8701,
      "אחדות": 8702,
      "##hotels": 8703,
      "##גלו": 8704,
      "##אז": 8705,
      "באותם": 8706,
      "לרמה": 8707,
      "המועצות": 8708,
      "##שקלון": 8709,
      "בים": 8710,
      "יתרה": 8711,
      "##av": 8712,
      "##טס": 8713,
      "מצח": 8714,
      "מיידי": 8715,
      "תלמידי": 8716,
      "עפ": 8717,
      "ויח": 8718,
      "##דיאל": 8719,
      "מצו": 8720,
      "##ge": 8721,
      "המפגש": 8722,
      "מוחלטת": 8723,
      "חובת": 8724,
      "ar": 8725,
      "דרג": 8726,
      "למשפחה": 8727,
      "עמוקה": 8728,
      "מחמ": 8729,
      "עיי": 8730,
      "התחושה": 8731,
      "מגיל": 8732,
      "##בקים": 8733,
      "ההיסטור": 8734,
      "הגידול": 8735,
      "היתרון": 8736,
      "שהתח": 8737,
      "בתו": 8738,
      "המתח": 8739,
      "דיני": 8740,
      "וחש": 8741,
      "הצרפתי": 8742,
      "זקוק": 8743,
      "תרגום": 8744,
      "להגדיר": 8745,
      "מתחם": 8746,
      "נמצאו": 8747,
      "וסי": 8748,
      "לשלוט": 8749,
      "דינו": 8750,
      "מחלוקת": 8751,
      "אלקטרוני": 8752,
      "הסרטים": 8753,
      "מבחן": 8754,
      "##יאן": 8755,
      "##והים": 8756,
      "הכנסו": 8757,
      "ידידות": 8758,
      "אליעזר": 8759,
      "זאב": 8760,
      "דינ": 8761,
      "איכותיים": 8762,
      "ספרו": 8763,
      "אינני": 8764,
      "יוג": 8765,
      "פינוי": 8766,
      "##ate": 8767,
      "עמדות": 8768,
      "סמך": 8769,
      "הכותרת": 8770,
      "##נקציות": 8771,
      "מבוססת": 8772,
      "##מצאות": 8773,
      "##בורת": 8774,
      "##יראן": 8775,
      "לרצ": 8776,
      "בהסכם": 8777,
      "מתנג": 8778,
      "מנחם": 8779,
      "שוויון": 8780,
      "ברע": 8781,
      "מזרחי": 8782,
      "המיוע": 8783,
      "המחוז": 8784,
      "להילחם": 8785,
      "בסי": 8786,
      "לידה": 8787,
      "ממילא": 8788,
      "##בטיה": 8789,
      "הפסקת": 8790,
      "העבודות": 8791,
      "##יקון": 8792,
      "פונה": 8793,
      "##זרי": 8794,
      "הטובות": 8795,
      "##80": 8796,
      "והחל": 8797,
      "בסכום": 8798,
      "##וחת": 8799,
      "##ומא": 8800,
      "רוסית": 8801,
      "ושירות": 8802,
      "מקובל": 8803,
      "הדתית": 8804,
      "רמי": 8805,
      "##דוני": 8806,
      "איתנו": 8807,
      "מסוב": 8808,
      "הקיימים": 8809,
      "הנשק": 8810,
      "ענף": 8811,
      "פעל": 8812,
      "ומאז": 8813,
      "##חימה": 8814,
      "איני": 8815,
      "להפרי": 8816,
      "המקומות": 8817,
      "1999": 8818,
      "52": 8819,
      "החלב": 8820,
      "מהצד": 8821,
      "חלוקת": 8822,
      "##ולימפ": 8823,
      "##דרג": 8824,
      "מסורת": 8825,
      "לתפוס": 8826,
      "חשיבה": 8827,
      "חוט": 8828,
      "##35": 8829,
      "אבק": 8830,
      "שיכולים": 8831,
      "מלמד": 8832,
      "לאלו": 8833,
      "##פורמות": 8834,
      "תיאטרון": 8835,
      "נכס": 8836,
      "להצליח": 8837,
      "המדו": 8838,
      "ההשפעה": 8839,
      "##בקות": 8840,
      "##בחנה": 8841,
      "הגבר": 8842,
      "סכנה": 8843,
      "##פירה": 8844,
      "##כויים": 8845,
      "##\"חות": 8846,
      "##יטור": 8847,
      "זכוכית": 8848,
      "כשע": 8849,
      "המסת": 8850,
      "ממת": 8851,
      "שעוד": 8852,
      "יהושע": 8853,
      "##בדו": 8854,
      "המשטר": 8855,
      "המחלקה": 8856,
      "צעירה": 8857,
      "##כבות": 8858,
      "41": 8859,
      "החיל": 8860,
      "הפיר": 8861,
      "תעשה": 8862,
      "כוונה": 8863,
      "רגילה": 8864,
      "##og": 8865,
      "##וחרים": 8866,
      "דרישות": 8867,
      "ביניהן": 8868,
      "לבנים": 8869,
      "לשתי": 8870,
      "התייש": 8871,
      "בינלאומי": 8872,
      "הינם": 8873,
      "##_02": 8874,
      "במוצ": 8875,
      "ובנוסף": 8876,
      "למשת": 8877,
      "מקד": 8878,
      "##ודעות": 8879,
      "##וכנת": 8880,
      "בסיפור": 8881,
      "יכולתי": 8882,
      "בשאלה": 8883,
      "מוני": 8884,
      "אלבום": 8885,
      "קיבלתי": 8886,
      "מקומיים": 8887,
      "##ct": 8888,
      "ההכנסות": 8889,
      "בגדר": 8890,
      "האמצ": 8891,
      "בניהול": 8892,
      "הוקם": 8893,
      "תושב": 8894,
      "מודעים": 8895,
      "קב": 8896,
      "למנות": 8897,
      "לאחור": 8898,
      "חודשיים": 8899,
      "רבע": 8900,
      "יהדות": 8901,
      "הפיג": 8902,
      "נשימה": 8903,
      "##וברים": 8904,
      "##60": 8905,
      "עמדו": 8906,
      "##למד": 8907,
      "במלחמה": 8908,
      "נותנת": 8909,
      "אוז": 8910,
      "כב'": 8911,
      "וטי": 8912,
      "הכרה": 8913,
      "זיו": 8914,
      "שהכל": 8915,
      "הספרות": 8916,
      "נהיה": 8917,
      "ופשוט": 8918,
      "השראה": 8919,
      "##נשטיין": 8920,
      "אמן": 8921,
      "בחייו": 8922,
      "בלח": 8923,
      "##_12": 8924,
      "סטנדר": 8925,
      "קירות": 8926,
      "עברית": 8927,
      "##מודדים": 8928,
      "יקבלו": 8929,
      "הציע": 8930,
      "למכירה": 8931,
      "מוכנה": 8932,
      "המסור": 8933,
      "להסיר": 8934,
      "##גישו": 8935,
      "דוח": 8936,
      "חוג": 8937,
      "לחקור": 8938,
      "משפטית": 8939,
      "עיניו": 8940,
      "ציור": 8941,
      "השינויים": 8942,
      "המסר": 8943,
      "למתן": 8944,
      "הרפואה": 8945,
      "באוויר": 8946,
      "האול": 8947,
      "pl": 8948,
      "##לד": 8949,
      "נטו": 8950,
      "עצמאית": 8951,
      "שמכ": 8952,
      "הדיגיט": 8953,
      "צעדים": 8954,
      "לרגל": 8955,
      "לעד": 8956,
      "החרדי": 8957,
      "##מריקה": 8958,
      "הניצחון": 8959,
      "לחוות": 8960,
      "##ליש": 8961,
      "המבצע": 8962,
      "רשמית": 8963,
      "בחנות": 8964,
      "שהול": 8965,
      "שהייתי": 8966,
      "גופים": 8967,
      "ובמה": 8968,
      "בביצוע": 8969,
      "רמה": 8970,
      "אישר": 8971,
      "##שמיות": 8972,
      "לשיפור": 8973,
      "מבקשת": 8974,
      "הבעל": 8975,
      "האופנה": 8976,
      "##חקה": 8977,
      "הסיכוי": 8978,
      "המושלם": 8979,
      "רוני": 8980,
      "והופ": 8981,
      "מסיבה": 8982,
      "סיטי": 8983,
      "חודשי": 8984,
      "נלח": 8985,
      "המאמר": 8986,
      "בחינם": 8987,
      "שנוע": 8988,
      "היהדות": 8989,
      "##טוקול": 8990,
      "משפחתי": 8991,
      "הקורס": 8992,
      "הדו\"ח": 8993,
      "בתוספת": 8994,
      "לאותו": 8995,
      "בדרכים": 8996,
      "עמודים": 8997,
      "לוקחים": 8998,
      "לפרק": 8999,
      "ברוח": 9000,
      "##בוש": 9001,
      "מיוחדות": 9002,
      "הביאה": 9003,
      "השיחה": 9004,
      "##עתים": 9005,
      "מסייע": 9006,
      "##נ\"ך": 9007,
      "מופע": 9008,
      "מיות": 9009,
      "##ורכי": 9010,
      "##וברת": 9011,
      "פרג": 9012,
      "העבירה": 9013,
      "בצע": 9014,
      "##יפי": 9015,
      "הצבאית": 9016,
      "פרסם": 9017,
      "##לוות": 9018,
      "הסתי": 9019,
      "מושלמת": 9020,
      "##דיר": 9021,
      "כשנה": 9022,
      "הרלוונט": 9023,
      "דהיינו": 9024,
      "כצ": 9025,
      "יופי": 9026,
      "בהתק": 9027,
      "המפתח": 9028,
      "##יסטית": 9029,
      "גרוע": 9030,
      "##יסטי": 9031,
      "מורים": 9032,
      "##פכו": 9033,
      "במחירים": 9034,
      "והמת": 9035,
      "בבת": 9036,
      "אוגוסט": 9037,
      "מדעי": 9038,
      "כתבי": 9039,
      "במקצוע": 9040,
      "ותה": 9041,
      "שתק": 9042,
      "מחשבות": 9043,
      "##וציאלי": 9044,
      "67": 9045,
      "פיו": 9046,
      "בתולדות": 9047,
      "##ליכה": 9048,
      "לצמצם": 9049,
      "##ומינ": 9050,
      "מהמח": 9051,
      "נתנו": 9052,
      "##וגת": 9053,
      "פוס": 9054,
      "רות": 9055,
      "הזדמנויות": 9056,
      "בטקס": 9057,
      "##דיקת": 9058,
      "דוגמאות": 9059,
      "יט": 9060,
      "חלום": 9061,
      "##נסיים": 9062,
      "ושות": 9063,
      "קיד": 9064,
      "בקבוצת": 9065,
      "##מוח": 9066,
      "המכונית": 9067,
      "##דרגות": 9068,
      "לענייני": 9069,
      "בינינו": 9070,
      "##פקים": 9071,
      "ביבי": 9072,
      "שוקולד": 9073,
      "##פוח": 9074,
      "פיזית": 9075,
      "קצין": 9076,
      "לבתי": 9077,
      "הלחץ": 9078,
      "עצמכם": 9079,
      "אמנים": 9080,
      "טענת": 9081,
      "הטבעי": 9082,
      "##שלנות": 9083,
      "אריק": 9084,
      "##אתו": 9085,
      "דיל": 9086,
      "נכנסים": 9087,
      "אהוד": 9088,
      "חייה": 9089,
      "רשימה": 9090,
      "ברציפות": 9091,
      "ובג": 9092,
      "והשת": 9093,
      "בעידן": 9094,
      "לתש": 9095,
      "הופיע": 9096,
      "בימינו": 9097,
      "מאוב": 9098,
      "בטבע": 9099,
      "אחי": 9100,
      "לניהול": 9101,
      "עבורם": 9102,
      "לפניו": 9103,
      "ללקוח": 9104,
      "התכו": 9105,
      "חלקית": 9106,
      "והול": 9107,
      "מסוכן": 9108,
      "האוניברסיטה": 9109,
      "גרעי": 9110,
      "##זיק": 9111,
      "##חקו": 9112,
      "ביתו": 9113,
      "##ברט": 9114,
      "רבין": 9115,
      "אובדן": 9116,
      "ובית": 9117,
      "משרת": 9118,
      "##מיק": 9119,
      "##וצץ": 9120,
      "מניית": 9121,
      "##וזרים": 9122,
      "נגמר": 9123,
      "מיוע": 9124,
      "שחקני": 9125,
      "לשחרר": 9126,
      "בתמורה": 9127,
      "בבניין": 9128,
      "ארצה": 9129,
      "מכלל": 9130,
      "לשוב": 9131,
      "ענקית": 9132,
      "מפות": 9133,
      "700": 9134,
      "החודשים": 9135,
      "האמיתית": 9136,
      "אנרג": 9137,
      "##נראה": 9138,
      "מסוימות": 9139,
      "חברתיות": 9140,
      "##יליות": 9141,
      "שנר": 9142,
      "נותרו": 9143,
      "הנמ": 9144,
      "מוזיאון": 9145,
      "בבאר": 9146,
      "שאחרי": 9147,
      "מצומ": 9148,
      "ובעל": 9149,
      "תקין": 9150,
      "הפדר": 9151,
      "האדרי": 9152,
      "לארו": 9153,
      "הנור": 9154,
      "אומנם": 9155,
      "##פין": 9156,
      "בתנו": 9157,
      "סגל": 9158,
      "אתו": 9159,
      "ומתק": 9160,
      "החוזה": 9161,
      "ומור": 9162,
      "הסח": 9163,
      "הנכסים": 9164,
      "פרנס": 9165,
      "הירידה": 9166,
      "המקומיות": 9167,
      "##ציונ": 9168,
      "##יטאות": 9169,
      "לקרות": 9170,
      "להפחית": 9171,
      "הספיק": 9172,
      "לפיו": 9173,
      "##ופרת": 9174,
      "חז\"ל": 9175,
      "גזע": 9176,
      "לכול": 9177,
      "הרה": 9178,
      "##ערות": 9179,
      "בעיתון": 9180,
      "למחיר": 9181,
      "##ובתו": 9182,
      "לוג": 9183,
      "צופים": 9184,
      "שותפים": 9185,
      "להעמיד": 9186,
      "##יליון": 9187,
      "ביכולת": 9188,
      "##וגע": 9189,
      "אופנה": 9190,
      "הצטרף": 9191,
      "##פיקה": 9192,
      "##ולציה": 9193,
      "שעברו": 9194,
      "לשרת": 9195,
      "בפרשת": 9196,
      "להדגיש": 9197,
      "חלקה": 9198,
      "בגד": 9199,
      "ירקות": 9200,
      "להיו": 9201,
      "##יצים": 9202,
      "נמנ": 9203,
      "המובילים": 9204,
      "לשיר": 9205,
      "לצרכים": 9206,
      "##עצ": 9207,
      "##ושינגטון": 9208,
      "ההזדמנות": 9209,
      "##ארץ": 9210,
      "ידועה": 9211,
      "כמוה": 9212,
      "##ינתי": 9213,
      "פניה": 9214,
      "רכישה": 9215,
      "06": 9216,
      "##עימות": 9217,
      "בתר": 9218,
      "##פקוד": 9219,
      "##חשבו": 9220,
      "שיחת": 9221,
      "תיירות": 9222,
      "גרסת": 9223,
      "##פלד": 9224,
      "לעתיד": 9225,
      "מקיף": 9226,
      "העות": 9227,
      "גורמת": 9228,
      "המקורית": 9229,
      "##יבט": 9230,
      "אדיר": 9231,
      "אילת": 9232,
      "רציני": 9233,
      "הרופאים": 9234,
      "שבית": 9235,
      "זמין": 9236,
      "סבי": 9237,
      "הבינו": 9238,
      "למלחמה": 9239,
      "שמישהו": 9240,
      "הניהול": 9241,
      "וינ": 9242,
      "מסעדות": 9243,
      "הנדרש": 9244,
      "##קיף": 9245,
      "הצרכים": 9246,
      "וכשה": 9247,
      "התנג": 9248,
      "לחשוף": 9249,
      "##וויון": 9250,
      "הפרשה": 9251,
      "עמה": 9252,
      "הקבל": 9253,
      "משמעותיים": 9254,
      "##ועלות": 9255,
      "קשורה": 9256,
      "רצו": 9257,
      "cl": 9258,
      "לונדון": 9259,
      "מוכרת": 9260,
      "תשתית": 9261,
      "מרדכי": 9262,
      "חוקים": 9263,
      "הנושאים": 9264,
      "##ובסקי": 9265,
      "התואר": 9266,
      "##ליא": 9267,
      "במחוז": 9268,
      "תאריך": 9269,
      "##ולמו": 9270,
      "כדין": 9271,
      "מוסד": 9272,
      "ומשם": 9273,
      "הדלק": 9274,
      "ויג": 9275,
      "להמשך": 9276,
      "להסכם": 9277,
      "להשיב": 9278,
      "##לום": 9279,
      "ודר": 9280,
      "סמי": 9281,
      "רופאים": 9282,
      "##ומיניום": 9283,
      "חברו": 9284,
      "המוקד": 9285,
      "עיו": 9286,
      "אמיר": 9287,
      "התחילו": 9288,
      "##חווה": 9289,
      "##קרת": 9290,
      "יכ": 9291,
      "בכניסה": 9292,
      "הקיב": 9293,
      "##כמות": 9294,
      "החיבור": 9295,
      "וכיו": 9296,
      "לנהוג": 9297,
      "to": 9298,
      "##ופע": 9299,
      "האומ": 9300,
      "רכוש": 9301,
      "##וניברסיטת": 9302,
      "ין": 9303,
      "לתרום": 9304,
      "מוחמד": 9305,
      "57": 9306,
      "שמטר": 9307,
      "##אתר": 9308,
      "עיתונאים": 9309,
      "שלק": 9310,
      "ביממה": 9311,
      "##דיקים": 9312,
      "מתקדמים": 9313,
      "פעילים": 9314,
      "התחתון": 9315,
      "##ופיות": 9316,
      "לירושלים": 9317,
      "השחור": 9318,
      "המרכזיים": 9319,
      "בטלפון": 9320,
      "נטל": 9321,
      "##פרק": 9322,
      "ושאר": 9323,
      "המהפכה": 9324,
      "הממונה": 9325,
      "##mark": 9326,
      "ב\"כ": 9327,
      "רכבת": 9328,
      "המקביל": 9329,
      "איגוד": 9330,
      "##קבוצה": 9331,
      "מינו": 9332,
      "##וסופיה": 9333,
      "תפקידים": 9334,
      "##ימות": 9335,
      "##our": 9336,
      "אלכסנדר": 9337,
      "ושא": 9338,
      "נרח": 9339,
      "במתחם": 9340,
      "שתיים": 9341,
      "להסתכל": 9342,
      "ושני": 9343,
      "והאם": 9344,
      "אביה": 9345,
      "אירועי": 9346,
      "בינה": 9347,
      "ממך": 9348,
      "עקרונות": 9349,
      "נובעת": 9350,
      "הודות": 9351,
      "##פאה": 9352,
      "הניק": 9353,
      "##ופיים": 9354,
      "רדיו": 9355,
      "מוסיפים": 9356,
      "אחסון": 9357,
      "הפרט": 9358,
      "סיימה": 9359,
      "##לקום": 9360,
      "וזהו": 9361,
      "בפיתוח": 9362,
      "הפצ": 9363,
      "השתתפו": 9364,
      "חתם": 9365,
      "בבריטניה": 9366,
      "אווירה": 9367,
      "בחלל": 9368,
      "מהותי": 9369,
      "##ינוק": 9370,
      "תאורה": 9371,
      "##נגל": 9372,
      "54": 9373,
      "שהדבר": 9374,
      "להגנת": 9375,
      "בשווי": 9376,
      "ההוצאה": 9377,
      "##נטל": 9378,
      "המבחן": 9379,
      "ואומר": 9380,
      "##טריונים": 9381,
      "##שרדים": 9382,
      "מצבו": 9383,
      "פיקוח": 9384,
      "העליונה": 9385,
      "##שתם": 9386,
      "51": 9387,
      "נוסח": 9388,
      "##שרדי": 9389,
      "ייר": 9390,
      "הפחד": 9391,
      "הארו": 9392,
      "כמש": 9393,
      "בקיצור": 9394,
      "רבינו": 9395,
      "מתקדם": 9396,
      "##וריו": 9397,
      "ולפעמים": 9398,
      "##זהר": 9399,
      "##יאוף": 9400,
      "בג\"ץ": 9401,
      "##רכיבים": 9402,
      "מיטב": 9403,
      "שדי": 9404,
      "עיצ": 9405,
      "##שורים": 9406,
      "נתניה": 9407,
      "האופן": 9408,
      "הרחוב": 9409,
      "הסוף": 9410,
      "מובילה": 9411,
      "הזיכרון": 9412,
      "##טריה": 9413,
      "ליווי": 9414,
      "טיפולי": 9415,
      "אושר": 9416,
      "##לע": 9417,
      "העונש": 9418,
      "ההודעה": 9419,
      "מבינה": 9420,
      "הקרובות": 9421,
      "חטיבת": 9422,
      "במסלול": 9423,
      "האג\"ח": 9424,
      "שיעורי": 9425,
      "##מסגרת": 9426,
      "מצוינת": 9427,
      "##יטיקה": 9428,
      "לחיל": 9429,
      "סמל": 9430,
      "נוטים": 9431,
      "מייצ": 9432,
      "ולעיתים": 9433,
      "דגים": 9434,
      "##עורים": 9435,
      "##ובלה": 9436,
      "גביע": 9437,
      "##בנים": 9438,
      "כמת": 9439,
      "בדברים": 9440,
      "מטבע": 9441,
      "תגובות": 9442,
      "מלוא": 9443,
      "##אלץ": 9444,
      "למסע": 9445,
      "אוסף": 9446,
      "ייפ": 9447,
      "שורות": 9448,
      "הרשימה": 9449,
      "ובלתי": 9450,
      "##שול": 9451,
      "##ימרים": 9452,
      "חזקים": 9453,
      "pro": 9454,
      "##לווים": 9455,
      "חלקו": 9456,
      "קשיים": 9457,
      "58": 9458,
      "##גיעות": 9459,
      "##all": 9460,
      "##וכות": 9461,
      "##ינתן": 9462,
      "הגור": 9463,
      "להעריך": 9464,
      "לקול": 9465,
      "להגיב": 9466,
      "חלונות": 9467,
      "וצריך": 9468,
      "אסף": 9469,
      "פוגע": 9470,
      "##ולרית": 9471,
      "הנש": 9472,
      "בשקט": 9473,
      "המוביל": 9474,
      "שהנ": 9475,
      "53": 9476,
      "##מכת": 9477,
      "התופעה": 9478,
      "נהנה": 9479,
      "56": 9480,
      "וכעת": 9481,
      "##דווקא": 9482,
      "נעשית": 9483,
      "##לישה": 9484,
      "אלכוהול": 9485,
      "קומות": 9486,
      "עדן": 9487,
      "ראויה": 9488,
      "1998": 9489,
      "##משי": 9490,
      "מפחד": 9491,
      "להטיל": 9492,
      "הנצ": 9493,
      "להורים": 9494,
      "הגא": 9495,
      "##ופשה": 9496,
      "לכו": 9497,
      "מפח": 9498,
      "הפעלת": 9499,
      "משו": 9500,
      "בצה\"ל": 9501,
      "ערי": 9502,
      "64": 9503,
      "שתע": 9504,
      "##ביק": 9505,
      "מהט": 9506,
      "##יפיות": 9507,
      "נחמד": 9508,
      "הרווחה": 9509,
      "##בולות": 9510,
      "לאס": 9511,
      "הנוסעים": 9512,
      "משאבים": 9513,
      "הכאב": 9514,
      "##בריה": 9515,
      "##טיחה": 9516,
      "סגור": 9517,
      "באס": 9518,
      "##ub": 9519,
      "##צק": 9520,
      "נפטר": 9521,
      "יכלו": 9522,
      "המנוח": 9523,
      "נפגע": 9524,
      "##עבד": 9525,
      "ומכאן": 9526,
      "##ולוגיות": 9527,
      "##יקלי": 9528,
      "עוברת": 9529,
      "כיסוי": 9530,
      "##לג": 9531,
      "האכ": 9532,
      "זרה": 9533,
      "השכונה": 9534,
      "חבריו": 9535,
      "נהדרת": 9536,
      "ורג": 9537,
      "רוי": 9538,
      "ברשתות": 9539,
      "הביקור": 9540,
      "חשמ": 9541,
      "בהדרגה": 9542,
      "המחאה": 9543,
      "להשו": 9544,
      "וחשב": 9545,
      "##וסיות": 9546,
      "נחת": 9547,
      "ערכ": 9548,
      "##מטכ\"ל": 9549,
      "המובילות": 9550,
      "הקבלה": 9551,
      "##ערובת": 9552,
      "ביקשה": 9553,
      "איום": 9554,
      "אליפות": 9555,
      "יציבות": 9556,
      "##נדים": 9557,
      "כתיבת": 9558,
      "החולה": 9559,
      "נפשי": 9560,
      "בודדים": 9561,
      "למשוך": 9562,
      "וסט": 9563,
      "בסוג": 9564,
      "##וארד": 9565,
      "##כבים": 9566,
      "נסיבות": 9567,
      "##טוס": 9568,
      "בהיר": 9569,
      "בוש": 9570,
      "נתקל": 9571,
      "תחבורה": 9572,
      "טיסה": 9573,
      "מ\"מ": 9574,
      "לסוג": 9575,
      "העדי": 9576,
      "צרכ": 9577,
      "ליק": 9578,
      "המיקום": 9579,
      "משטרת": 9580,
      "אלפים": 9581,
      "גרסה": 9582,
      "it": 9583,
      "##ביעי": 9584,
      "הצופים": 9585,
      "ושמ": 9586,
      "פנימית": 9587,
      "##tern": 9588,
      "הזמינו": 9589,
      "אפקט": 9590,
      "שלשום": 9591,
      "אנד": 9592,
      "גלעד": 9593,
      "לפתע": 9594,
      "אבטחה": 9595,
      "אייר": 9596,
      "לעם": 9597,
      "##מניות": 9598,
      "הדמות": 9599,
      "גופנית": 9600,
      "המשימה": 9601,
      "העולה": 9602,
      "##_04": 9603,
[...]
